{
  "version": "1.0",
  "truncation": null,
  "padding": null,
  "added_tokens": [
    {
      "id": 0,
      "content": "<PAD>",
      "single_word": false,
      "lstrip": false,
      "rstrip": false,
      "normalized": false,
      "special": true
    },
    {
      "id": 1,
      "content": "<UNK>",
      "single_word": false,
      "lstrip": false,
      "rstrip": false,
      "normalized": false,
      "special": true
    },
    {
      "id": 2,
      "content": "<BOS>",
      "single_word": false,
      "lstrip": false,
      "rstrip": false,
      "normalized": false,
      "special": true
    },
    {
      "id": 3,
      "content": "<EOS>",
      "single_word": false,
      "lstrip": false,
      "rstrip": false,
      "normalized": false,
      "special": true
    },
    {
      "id": 4,
      "content": "<MASK>",
      "single_word": false,
      "lstrip": false,
      "rstrip": false,
      "normalized": false,
      "special": true
    }
  ],
  "normalizer": null,
  "pre_tokenizer": {
    "type": "ByteLevel",
    "add_prefix_space": false,
    "trim_offsets": true,
    "use_regex": true
  },
  "post_processor": null,
  "decoder": {
    "type": "ByteLevel",
    "add_prefix_space": true,
    "trim_offsets": true,
    "use_regex": true
  },
  "model": {
    "type": "BPE",
    "dropout": null,
    "unk_token": "<UNK>",
    "continuing_subword_prefix": null,
    "end_of_word_suffix": null,
    "fuse_unk": false,
    "byte_fallback": false,
    "ignore_merges": false,
    "vocab": {
      "<PAD>": 0,
      "<UNK>": 1,
      "<BOS>": 2,
      "<EOS>": 3,
      "<MASK>": 4,
      "!": 5,
      "\"": 6,
      "#": 7,
      "$": 8,
      "%": 9,
      "&": 10,
      "'": 11,
      "(": 12,
      ")": 13,
      "*": 14,
      "+": 15,
      ",": 16,
      "-": 17,
      ".": 18,
      "/": 19,
      "0": 20,
      "1": 21,
      "2": 22,
      "3": 23,
      "4": 24,
      "5": 25,
      "6": 26,
      "7": 27,
      "8": 28,
      "9": 29,
      ":": 30,
      ";": 31,
      "<": 32,
      "=": 33,
      ">": 34,
      "?": 35,
      "@": 36,
      "A": 37,
      "B": 38,
      "C": 39,
      "D": 40,
      "E": 41,
      "F": 42,
      "G": 43,
      "H": 44,
      "I": 45,
      "J": 46,
      "K": 47,
      "L": 48,
      "M": 49,
      "N": 50,
      "O": 51,
      "P": 52,
      "Q": 53,
      "R": 54,
      "S": 55,
      "T": 56,
      "U": 57,
      "V": 58,
      "W": 59,
      "X": 60,
      "Y": 61,
      "Z": 62,
      "[": 63,
      "\\": 64,
      "]": 65,
      "^": 66,
      "_": 67,
      "`": 68,
      "a": 69,
      "b": 70,
      "c": 71,
      "d": 72,
      "e": 73,
      "f": 74,
      "g": 75,
      "h": 76,
      "i": 77,
      "j": 78,
      "k": 79,
      "l": 80,
      "m": 81,
      "n": 82,
      "o": 83,
      "p": 84,
      "q": 85,
      "r": 86,
      "s": 87,
      "t": 88,
      "u": 89,
      "v": 90,
      "w": 91,
      "x": 92,
      "y": 93,
      "z": 94,
      "{": 95,
      "|": 96,
      "}": 97,
      "~": 98,
      "¡": 99,
      "¢": 100,
      "£": 101,
      "¤": 102,
      "¥": 103,
      "¦": 104,
      "§": 105,
      "¨": 106,
      "©": 107,
      "ª": 108,
      "«": 109,
      "¬": 110,
      "®": 111,
      "¯": 112,
      "°": 113,
      "±": 114,
      "²": 115,
      "³": 116,
      "´": 117,
      "µ": 118,
      "¶": 119,
      "·": 120,
      "¸": 121,
      "¹": 122,
      "º": 123,
      "»": 124,
      "¼": 125,
      "½": 126,
      "¾": 127,
      "¿": 128,
      "Â": 129,
      "Ã": 130,
      "Ä": 131,
      "Å": 132,
      "Æ": 133,
      "Ê": 134,
      "Ë": 135,
      "Ì": 136,
      "Î": 137,
      "Ï": 138,
      "Ð": 139,
      "Ñ": 140,
      "×": 141,
      "Ø": 142,
      "Ù": 143,
      "Ú": 144,
      "Û": 145,
      "à": 146,
      "á": 147,
      "â": 148,
      "ã": 149,
      "ä": 150,
      "å": 151,
      "æ": 152,
      "ç": 153,
      "è": 154,
      "ê": 155,
      "ï": 156,
      "Ċ": 157,
      "Ġ": 158,
      "Ģ": 159,
      "ģ": 160,
      "Ĥ": 161,
      "ĥ": 162,
      "Ħ": 163,
      "ħ": 164,
      "Ĩ": 165,
      "ĩ": 166,
      "Ī": 167,
      "ī": 168,
      "Ĭ": 169,
      "ĭ": 170,
      "Į": 171,
      "į": 172,
      "İ": 173,
      "ı": 174,
      "Ĳ": 175,
      "ĳ": 176,
      "Ĵ": 177,
      "ĵ": 178,
      "Ķ": 179,
      "ķ": 180,
      "ĸ": 181,
      "Ĺ": 182,
      "ĺ": 183,
      "Ļ": 184,
      "ļ": 185,
      "Ľ": 186,
      "ľ": 187,
      "Ŀ": 188,
      "ŀ": 189,
      "Ł": 190,
      "ł": 191,
      "Ń": 192,
      "Ġt": 193,
      "Ġa": 194,
      "in": 195,
      "on": 196,
      "er": 197,
      "--": 198,
      "Ġth": 199,
      "re": 200,
      "or": 201,
      "en": 202,
      "at": 203,
      "Ġthe": 204,
      "an": 205,
      "es": 206,
      "Ġs": 207,
      "ou": 208,
      "Ġw": 209,
      "is": 210,
      "Ġc": 211,
      "ed": 212,
      "it": 213,
      "ar": 214,
      "al": 215,
      "Ġp": 216,
      "Ġb": 217,
      "Ġf": 218,
      "Ġto": 219,
      "om": 220,
      "----": 221,
      "ing": 222,
      "Ġo": 223,
      "Ġan": 224,
      "AA": 225,
      "ĠS": 226,
      "il": 227,
      "**": 228,
      "Ġm": 229,
      "ĠT": 230,
      "as": 231,
      "ic": 232,
      "Ġh": 233,
      "ion": 234,
      "Ġin": 235,
      "le": 236,
      "__": 237,
      "Ġd": 238,
      "ĠC": 239,
      "Ġof": 240,
      "ent": 241,
      "Ġand": 242,
      "ĠA": 243,
      "ct": 244,
      "ĠM": 245,
      "ĠI": 246,
      "00": 247,
      "ĠP": 248,
      "Ġre": 249,
      "et": 250,
      "el": 251,
      "ay": 252,
      "Ġn": 253,
      "Ġy": 254,
      "ĠE": 255,
      "ro": 256,
      "ve": 257,
      "ĠF": 258,
      "us": 259,
      "Ġ>": 260,
      "Ġe": 261,
      "ĠD": 262,
      "Ġyou": 263,
      "ow": 264,
      "Ġfor": 265,
      "id": 266,
      "****": 267,
      "Ġl": 268,
      "Ġon": 269,
      "ĠR": 270,
      "Ġ1": 271,
      "ch": 272,
      "Ġg": 273,
      "--------": 274,
      "ot": 275,
      "ron": 276,
      "Ġbe": 277,
      "Ġis": 278,
      "ĠB": 279,
      "____": 280,
      "ce": 281,
      "ĠTh": 282,
      "AAAA": 283,
      "ill": 284,
      "ation": 285,
      "Ġ2": 286,
      "ig": 287,
      "ĠW": 288,
      "ra": 289,
      "ol": 290,
      "st": 291,
      "==": 292,
      "ly": 293,
      "ut": 294,
      "ĠJ": 295,
      "ĠN": 296,
      "im": 297,
      "com": 298,
      "ur": 299,
      "Ġ(": 300,
      "ĠH": 301,
      "Ġthat": 302,
      "ers": 303,
      "ĠL": 304,
      "un": 305,
      "ge": 306,
      "est": 307,
      "th": 308,
      "ith": 309,
      "ment": 310,
      "EC": 311,
      "ess": 312,
      "ate": 313,
      "Ġcon": 314,
      "nron": 315,
      "ect": 316,
      "ĠG": 317,
      "Ġha": 318,
      "rom": 319,
      "if": 320,
      "am": 321,
      "ter": 322,
      "ver": 323,
      "ECT": 324,
      "Ġwh": 325,
      "Ġat": 326,
      "Ġst": 327,
      "'s": 328,
      "ub": 329,
      "Ġwith": 330,
      "Ġit": 331,
      "ir": 332,
      "ail": 333,
      "Ġpro": 334,
      "Ġthis": 335,
      "ĠO": 336,
      "ld": 337,
      "Ġas": 338,
      "ul": 339,
      "Ġwe": 340,
      "os": 341,
      "ew": 342,
      "Ġcom": 343,
      "ad": 344,
      "********": 345,
      "Ġ0": 346,
      "Ġor": 347,
      "ke": 348,
      "Ġare": 349,
      "ck": 350,
      "ard": 351,
      "Ġ-": 352,
      "??": 353,
      "ri": 354,
      "Ġhave": 355,
      "em": 356,
      "pp": 357,
      "Ġwill": 358,
      "age": 359,
      "ould": 360,
      "Ġ\"": 361,
      "ere": 362,
      "________": 363,
      "Ġnot": 364,
      "Ġal": 365,
      "qu": 366,
      "our": 367,
      "Ġby": 368,
      "end": 369,
      "//": 370,
      "ĠThe": 371,
      "day": 372,
      "ity": 373,
      "ase": 374,
      "res": 375,
      "ant": 376,
      "out": 377,
      "ort": 378,
      "and": 379,
      "art": 380,
      "001": 381,
      "ject": 382,
      "ĠK": 383,
      "..": 384,
      "====": 385,
      "ber": 386,
      "ĠTo": 387,
      "ab": 388,
      "----------------": 389,
      "ec": 390,
      "ht": 391,
      "-----": 392,
      "OU": 393,
      "ON": 394,
      "ist": 395,
      "EN": 396,
      "ff": 397,
      "Ġ$": 398,
      "Ġme": 399,
      "Ġsh": 400,
      "ĠIn": 401,
      "op": 402,
      "um": 403,
      "oun": 404,
      "Ġfrom": 405,
      "AAAAAAAA": 406,
      "Ġex": 407,
      "ric": 408,
      "ust": 409,
      "ies": 410,
      "ore": 411,
      "ta": 412,
      "all": 413,
      "ubject": 414,
      "ĠEnron": 415,
      "Ġr": 416,
      "ark": 417,
      "iv": 418,
      "Enron": 419,
      "oo": 420,
      "Ġv": 421,
      "HOU": 422,
      "ive": 423,
      "ĠSt": 424,
      "Ġyour": 425,
      "Ġde": 426,
      "up": 427,
      "ich": 428,
      "ĠSubject": 429,
      "ank": 430,
      "ions": 431,
      "ĠU": 432,
      "mail": 433,
      "ell": 434,
      "Ġle": 435,
      "000": 436,
      "ial": 437,
      "ear": 438,
      "gy": 439,
      "Ġcomp": 440,
      "ine": 441,
      "Ġ3": 442,
      "Ġch": 443,
      "se": 444,
      "ip": 445,
      "lease": 446,
      "ep": 447,
      "Ġun": 448,
      "ure": 449,
      "ap": 450,
      "ia": 451,
      "Ġany": 452,
      "Ġne": 453,
      "Ġdo": 454,
      "ight": 455,
      "Ġwas": 456,
      "ee": 457,
      "der": 458,
      "ĠPM": 459,
      "ĠV": 460,
      "ww": 461,
      "Ġ2001": 462,
      "ans": 463,
      "ast": 464,
      "Ġad": 465,
      "RON": 466,
      "Ġhas": 467,
      "Ġus": 468,
      "ĠCh": 469,
      "essage": 470,
      "Ġab": 471,
      "inal": 472,
      "Ġk": 473,
      "ack": 474,
      "ated": 475,
      "Ġpl": 476,
      "ud": 477,
      "ice": 478,
      "one": 479,
      "ary": 480,
      "ENRON": 481,
      "ie": 482,
      "any": 483,
      "Ġwould": 484,
      "ower": 485,
      "ire": 486,
      "for": 487,
      "Ġcan": 488,
      "****************": 489,
      "ag": 490,
      "ry": 491,
      "ergy": 492,
      "tt": 493,
      "Ġall": 494,
      "ork": 495,
      "ree": 496,
      "ĠFrom": 497,
      "Ġres": 498,
      "ĠY": 499,
      "Ġen": 500,
      "ES": 501,
      "her": 502,
      "ue": 503,
      "cc": 504,
      "Ġsa": 505,
      "orp": 506,
      "ĠRe": 507,
      "ost": 508,
      "Ġup": 509,
      "Ġag": 510,
      "Ġ7": 511,
      "oc": 512,
      "Ġhe": 513,
      "are": 514,
      "Ġsu": 515,
      "Ġ,": 516,
      "oug": 517,
      "ain": 518,
      "Ġj": 519,
      "Ġcont": 520,
      "Ġ-----": 521,
      "ther": 522,
      "fer": 523,
      "ak": 524,
      "rad": 525,
      "erv": 526,
      "ick": 527,
      "ll": 528,
      "ations": 529,
      "ĠCom": 530,
      "arket": 531,
      "ER": 532,
      "01": 533,
      "________________": 534,
      "orn": 535,
      "ence": 536,
      "Ġif": 537,
      "AG": 538,
      "ĠAn": 539,
      "now": 540,
      "pl": 541,
      "????": 542,
      "rig": 543,
      "ex": 544,
      "ĠAM": 545,
      "Ġour": 546,
      "ac": 547,
      "Ġout": 548,
      "========": 549,
      "ome": 550,
      "iz": 551,
      "able": 552,
      "ched": 553,
      "ments": 554,
      "enron": 555,
      "Ġsp": 556,
      "pt": 557,
      "av": 558,
      "form": 559,
      "Ġso": 560,
      "Ġ10": 561,
      "od": 562,
      "Ġ4": 563,
      "ake": 564,
      "://": 565,
      "Ġ[": 566,
      "cl": 567,
      "ime": 568,
      "Ġ5": 569,
      "ance": 570,
      "mer": 571,
      "'t": 572,
      "Ġgo": 573,
      "ĠSent": 574,
      "Ġapp": 575,
      "to": 576,
      "~~": 577,
      "ttp": 578,
      "Ġhttp": 579,
      "ĠMessage": 580,
      "ike": 581,
      "Ġsaid": 582,
      "port": 583,
      "Ġbut": 584,
      "ind": 585,
      "ĠWe": 586,
      "riginal": 587,
      "ward": 588,
      "Ġdis": 589,
      "Ġknow": 590,
      "uct": 591,
      "lect": 592,
      "Ġqu": 593,
      "ĠEn": 594,
      "ĠThank": 595,
      "ĠSh": 596,
      "Original": 597,
      "ook": 598,
      "13": 599,
      "ide": 600,
      "Ġits": 601,
      "ib": 602,
      "2001": 603,
      "ove": 604,
      "rans": 605,
      "oll": 606,
      "IM": 607,
      "per": 608,
      "Ġcl": 609,
      "dit": 610,
      "ts": 611,
      "Ġmore": 612,
      "ĠFor": 613,
      "ek": 614,
      "Ġ11": 615,
      "ob": 616,
      "Ġneed": 617,
      "Ġabout": 618,
      "so": 619,
      "Ġper": 620,
      "Ġnew": 621,
      "Ġget": 622,
      "Ġoff": 623,
      "ite": 624,
      "very": 625,
      "vi": 626,
      "ress": 627,
      "ĠIf": 628,
      "act": 629,
      "Ġthey": 630,
      "iss": 631,
      "ract": 632,
      "vel": 633,
      "anc": 634,
      "Ġweek": 635,
      "ile": 636,
      "Ġwhich": 637,
      "ĠCon": 638,
      "2000": 639,
      "ame": 640,
      "Ġbeen": 641,
      "ign": 642,
      "Ġpart": 643,
      "Ġcc": 644,
      "ink": 645,
      "ors": 646,
      "Ġ12": 647,
      "ough": 648,
      "ord": 649,
      "ues": 650,
      "Ġam": 651,
      "ally": 652,
      "99": 653,
      "NA": 654,
      "ov": 655,
      "ely": 656,
      "ĠCal": 657,
      "ach": 658,
      "Ġmay": 659,
      "ne": 660,
      "AAAAAAAAAAAAAAAA": 661,
      "man": 662,
      "ĠJo": 663,
      "Ġother": 664,
      "Ġmarket": 665,
      "Ġone": 666,
      "Ġrec": 667,
      "ates": 668,
      "Ġ8": 669,
      "aw": 670,
      "Ġ----------------": 671,
      "Ġtheir": 672,
      "Ġ6": 673,
      "ose": 674,
      "Ġwork": 675,
      "AGE": 676,
      "ren": 677,
      "ĠPlease": 678,
      "let": 679,
      "Ġpric": 680,
      "Ġmy": 681,
      "Ġim": 682,
      "ings": 683,
      "ities": 684,
      "ĠThanks": 685,
      "ound": 686,
      "Ġpower": 687,
      "AB": 688,
      "formation": 689,
      "Ġtime": 690,
      "Ġplease": 691,
      "Ġinter": 692,
      "he": 693,
      "Ġse": 694,
      "Ġsome": 695,
      "Ġcall": 696,
      "ris": 697,
      "son": 698,
      "Ġinv": 699,
      "ount": 700,
      "Ġyear": 701,
      "ang": 702,
      "IMAGE": 703,
      "ood": 704,
      "ĠThis": 705,
      "ond": 706,
      "oy": 707,
      "ass": 708,
      "ven": 709,
      "itt": 710,
      "hn": 711,
      "....": 712,
      "ax": 713,
      "ĠDe": 714,
      "ays": 715,
      "Ġthere": 716,
      "Ġreg": 717,
      "www": 718,
      "Ġrequ": 719,
      "ĠAs": 720,
      "Ġ9": 721,
      "Ġ&": 722,
      "AC": 723,
      "Ġshould": 724,
      "ong": 725,
      "iness": 726,
      "eff": 727,
      "oin": 728,
      "ĠWh": 729,
      "ident": 730,
      "erm": 731,
      "ĠFr": 732,
      "AN": 733,
      "Ġrece": 734,
      "Ġinformation": 735,
      "ĠNew": 736,
      "002": 737,
      "ility": 738,
      "Ġacc": 739,
      "iforn": 740,
      "usiness": 741,
      "rib": 742,
      "30": 743,
      "oup": 744,
      "Ġpre": 745,
      "Ġwho": 746,
      "Ġcompany": 747,
      "illion": 748,
      "Ġprov": 749,
      "ĠMon": 750,
      "ange": 751,
      "Ġ'": 752,
      "20": 753,
      "ĠAl": 754,
      "Ġind": 755,
      "IN": 756,
      "ober": 757,
      "Ġexp": 758,
      "ifornia": 759,
      "Ġalso": 760,
      "ous": 761,
      "Ġtrans": 762,
      "ult": 763,
      "Ġtrad": 764,
      "ĠRE": 765,
      "clud": 766,
      "Ġcons": 767,
      "lic": 768,
      "Ġlike": 769,
      "Ġwere": 770,
      "ĠMar": 771,
      "row": 772,
      "own": 773,
      "ock": 774,
      "tain": 775,
      "Ġover": 776,
      "ish": 777,
      "Ġhad": 778,
      "Ġ--": 779,
      "Ġass": 780,
      "yst": 781,
      "////": 782,
      "net": 783,
      "ĠCorp": 784,
      "Ġdeal": 785,
      "Ġwhat": 786,
      "ĠCalifornia": 787,
      "ĠHe": 788,
      "ĠComm": 789,
      "ical": 790,
      "ft": 791,
      "Ġmeet": 792,
      "Ġ?": 793,
      "Ġlet": 794,
      "og": 795,
      "ener": 796,
      "Ġte": 797,
      "10": 798,
      "AL": 799,
      "irm": 800,
      "Ġwant": 801,
      "Ġ*": 802,
      ").": 803,
      "old": 804,
      "uy": 805,
      "mber": 806,
      "12": 807,
      "ENT": 808,
      "duct": 809,
      "EL": 810,
      "view": 811,
      "Ġhis": 812,
      "Ġunder": 813,
      "ĠEnergy": 814,
      "Ġar": 815,
      "roup": 816,
      "50": 817,
      "Ġdisc": 818,
      "OR": 819,
      "AD": 820,
      "Ġcontract": 821,
      "uss": 822,
      "ise": 823,
      "tend": 824,
      "ating": 825,
      "Ġ>>": 826,
      "ram": 827,
      "Ġcomm": 828,
      "Ġ|": 829,
      "ĠIt": 830,
      "fter": 831,
      "Ġenergy": 832,
      "Ġstate": 833,
      "AT": 834,
      "Ġcould": 835,
      "ĠEx": 836,
      "ollow": 837,
      "lectric": 838,
      "Ġadd": 839,
      "Ġthese": 840,
      "Ġwhen": 841,
      "ru": 842,
      "Ġinclud": 843,
      "irect": 844,
      "air": 845,
      "ater": 846,
      "ston": 847,
      "ission": 848,
      "ens": 849,
      "ĠJohn": 850,
      "Ġno": 851,
      "Ġpos": 852,
      "Ġiss": 853,
      "Ġthem": 854,
      "ĠHou": 855,
      "Ġsent": 856,
      "line": 857,
      "********************************": 858,
      "ĠPro": 859,
      "ĠDav": 860,
      "aus": 861,
      "cy": 862,
      "Ġhel": 863,
      "ices": 864,
      "ient": 865,
      "we": 866,
      "Ġconf": 867,
      "Ġquest": 868,
      "Ġcre": 869,
      "Ġatta": 870,
      "Ġonly": 871,
      "AR": 872,
      "ific": 873,
      "!!": 874,
      "ition": 875,
      "EES": 876,
      "Ġbel": 877,
      "Ġsee": 878,
      "ince": 879,
      "Ġinto": 880,
      "ann": 881,
      "Ġthan": 882,
      "ĠJan": 883,
      "Ġlast": 884,
      "ace": 885,
      "ĠCl": 886,
      "Ġfollow": 887,
      "Ġjust": 888,
      "Ġsupp": 889,
      "urs": 890,
      "warded": 891,
      "und": 892,
      "Ġreport": 893,
      "ah": 894,
      "Ġuse": 895,
      "ased": 896,
      "Ġback": 897,
      "================": 898,
      "Ġact": 899,
      "Ġemail": 900,
      "iday": 901,
      "gA": 902,
      "ley": 903,
      "ory": 904,
      "Ġco": 905,
      "ĠOct": 906,
      "Ġmon": 907,
      "15": 908,
      "Ġresp": 909,
      "li": 910,
      "wo": 911,
      "ĠJeff": 912,
      "ons": 913,
      "Ġserv": 914,
      "ott": 915,
      "Ġbet": 916,
      "Ġbusiness": 917,
      "ern": 918,
      "Ġthink": 919,
      "~~~~": 920,
      "ustom": 921,
      "ug": 922,
      "Ġnow": 923,
      "Ġgas": 924,
      "ale": 925,
      "Ġsend": 926,
      "Ġhow": 927,
      "ix": 928,
      "IS": 929,
      "reement": 930,
      ".\"": 931,
      "Ġlook": 932,
      "irst": 933,
      "urn": 934,
      "PM": 935,
      "Ġappro": 936,
      "25": 937,
      "arg": 938,
      "Corp": 939,
      "ĠQ": 940,
      "igh": 941,
      "orth": 942,
      "ton": 943,
      "ĠMonday": 944,
      "????????": 945,
      "ause": 946,
      "nes": 947,
      "Ġ2002": 948,
      "eg": 949,
      "ystem": 950,
      "ian": 951,
      "Ġman": 952,
      "ash": 953,
      "ĠHouston": 954,
      "rough": 955,
      "pos": 956,
      "rent": 957,
      "ett": 958,
      "Ġafter": 959,
      "ĠAg": 960,
      "Ġem": 961,
      "Ġday": 962,
      "ual": 963,
      "tact": 964,
      "Ġmake": 965,
      "________________________________": 966,
      "Ġ2000": 967,
      "ĠUn": 968,
      "ited": 969,
      "sc": 970,
      "Ġhelp": 971,
      "Ġinvest": 972,
      "ĠForwarded": 973,
      "ĠAll": 974,
      "Ġlist": 975,
      "ET": 976,
      "meric": 977,
      "Ġsub": 978,
      "con": 979,
      "Ġcur": 980,
      "inanc": 981,
      "40": 982,
      "Ġtwo": 983,
      "Ġdec": 984,
      "Ġagain": 985,
      "ara": 986,
      "erson": 987,
      "ĠYou": 988,
      "ave": 989,
      "fore": 990,
      "16": 991,
      "ey": 992,
      "pd": 993,
      "Ġ713": 994,
      "ĠComp": 995,
      "ĠInc": 996,
      "ional": 997,
      "Ġhere": 998,
      "Ġdiscuss": 999,
      "ĠWed": 1000,
      "uc": 1001,
      "Ġmessage": 1002,
      "DE": 1003,
      "Ġent": 1004,
      "opy": 1005,
      "ĠOctober": 1006,
      "53": 1007,
      "AI": 1008,
      "xt": 1009,
      "AS": 1010,
      "02": 1011,
      "ploy": 1012,
      "Ġ.": 1013,
      "Ġinc": 1014,
      "ins": 1015,
      "Ġthrough": 1016,
      "Ġro": 1017,
      "ĠPh": 1018,
      "ĠAnd": 1019,
      "ph": 1020,
      "Ġprob": 1021,
      "ĠFriday": 1022,
      "ĠRes": 1023,
      "11": 1024,
      "pe": 1025,
      "------": 1026,
      "Ġgener": 1027,
      "Ġnum": 1028,
      "ĠAmeric": 1029,
      "ade": 1030,
      "ember": 1031,
      "ĠCar": 1032,
      "ĠThurs": 1033,
      "ĠTues": 1034,
      "unic": 1035,
      "Ġpay": 1036,
      ",\"": 1037,
      "Ġprice": 1038,
      "ĠPower": 1039,
      "22": 1040,
      "ible": 1041,
      "Ġmonth": 1042,
      "ures": 1043,
      "Ġac": 1044,
      "Ġreview": 1045,
      "uring": 1046,
      "Ġcap": 1047,
      "att": 1048,
      "Ġtoday": 1049,
      "Ġdon": 1050,
      "ĠTuesday": 1051,
      "Ġdid": 1052,
      "ĠThursday": 1053,
      "alk": 1054,
      "Ġrem": 1055,
      "oth": 1056,
      "yn": 1057,
      "RE": 1058,
      "Ġpe": 1059,
      "resent": 1060,
      "Ġfe": 1061,
      "Ġquestions": 1062,
      "Ġmeeting": 1063,
      "Ġav": 1064,
      "Ġdown": 1065,
      "reat": 1066,
      "ards": 1067,
      "----------": 1068,
      "ĠGas": 1069,
      "err": 1070,
      "oint": 1071,
      "ĠMich": 1072,
      "Ġcustom": 1073,
      "uch": 1074,
      "IC": 1075,
      "nesday": 1076,
      "Ġrep": 1077,
      "Ġsign": 1078,
      "Ġcontact": 1079,
      "ones": 1080,
      "Ġnext": 1081,
      "Ġgoing": 1082,
      "Ġbec": 1083,
      "eck": 1084,
      "eli": 1085,
      "Ġret": 1086,
      "ĠWednesday": 1087,
      "...": 1088,
      "ames": 1089,
      "land": 1090,
      "riv": 1091,
      "Ġdes": 1092,
      "eth": 1093,
      "Ġeff": 1094,
      "Ġwell": 1095,
      "wn": 1096,
      "lo": 1097,
      "ĠSte": 1098,
      "velop": 1099,
      "ational": 1100,
      "ĠInter": 1101,
      "46": 1102,
      "ĠCo": 1103,
      "ution": 1104,
      "ublic": 1105,
      "inancial": 1106,
      "Ġfirst": 1107,
      "tended": 1108,
      "Ġmillion": 1109,
      "ĠMark": 1110,
      "45": 1111,
      "ever": 1112,
      "18": 1113,
      "its": 1114,
      "Ġear": 1115,
      "ason": 1116,
      "Ġ01": 1117,
      "Ġdet": 1118,
      "eb": 1119,
      "cess": 1120,
      "),": 1121,
      "Ġrequest": 1122,
      "Ġelectric": 1123,
      "Ġreceiv": 1124,
      "Ġke": 1125,
      "Ġtake": 1126,
      "urch": 1127,
      "Ġproduct": 1128,
      "ull": 1129,
      "ata": 1130,
      "Ġ19": 1131,
      "ath": 1132,
      "ative": 1133,
      "ovember": 1134,
      "Ġ04": 1135,
      "ĠMc": 1136,
      "19": 1137,
      "OT": 1138,
      "'ll": 1139,
      "OM": 1140,
      "VEL": 1141,
      "ference": 1142,
      "Ġgood": 1143,
      "17": 1144,
      "Ġgroup": 1145,
      "Ġcost": 1146,
      "ĠNovember": 1147,
      "ines": 1148,
      "ev": 1149,
      "atur": 1150,
      "imes": 1151,
      "QA": 1152,
      "Ġvery": 1153,
      "Ġtra": 1154,
      "Ġsec": 1155,
      "Ġut": 1156,
      "Ġbecause": 1157,
      "Ġ--------------------------": 1158,
      "ets": 1159,
      "Ġstart": 1160,
      "ople": 1161,
      "Ġdirect": 1162,
      "ms": 1163,
      "ruct": 1164,
      "ĠIS": 1165,
      "ĠAd": 1166,
      "Ġhim": 1167,
      "les": 1168,
      "14": 1169,
      "ĠServ": 1170,
      "ilities": 1171,
      "Ġadv": 1172,
      "ext": 1173,
      "Ġ02": 1174,
      "Ġsched": 1175,
      "Ġ03": 1176,
      "26": 1177,
      "bers": 1178,
      "ces": 1179,
      "ption": 1180,
      "ĠOn": 1181,
      "Ġsuch": 1182,
      "Ġrel": 1183,
      "vern": 1184,
      "--------------------------------": 1185,
      "'m": 1186,
      "ĠReg": 1187,
      "IT": 1188,
      "Ġsystem": 1189,
      "isk": 1190,
      "als": 1191,
      "ner": 1192,
      "28": 1193,
      "Ġinterest": 1194,
      "Ġavail": 1195,
      "read": 1196,
      "ĠMay": 1197,
      "VELO": 1198,
      "AP": 1199,
      "29": 1200,
      "red": 1201,
      "ĠSp": 1202,
      "co": 1203,
      "Ġ09": 1204,
      "ok": 1205,
      "24": 1206,
      "vent": 1207,
      "23": 1208,
      "Ġph": 1209,
      "ĠInd": 1210,
      "Ġfollowing": 1211,
      "Ġlong": 1212,
      "Ġeach": 1213,
      "amp": 1214,
      "Ġcurrent": 1215,
      "anies": 1216,
      "Ġchang": 1217,
      "Ġemploy": 1218,
      "VELOPM": 1219,
      "ather": 1220,
      "Ġ---------------------------": 1221,
      "Ag": 1222,
      "eld": 1223,
      "ss": 1224,
      "Ġintended": 1225,
      "Ġstill": 1226,
      "DEVELOPM": 1227,
      "ĠPl": 1228,
      "Ġright": 1229,
      "Ġher": 1230,
      "The": 1231,
      "Ġevery": 1232,
      "Ġimp": 1233,
      "ees": 1234,
      "ween": 1235,
      "Ġ05": 1236,
      "Ġway": 1237,
      "Ġi": 1238,
      ".,": 1239,
      "27": 1240,
      "Ġattached": 1241,
      "ĠMike": 1242,
      "ants": 1243,
      "DEVELOPMENT": 1244,
      "cu": 1245,
      "ION": 1246,
      "ERC": 1247,
      "ĠRich": 1248,
      "ful": 1249,
      "Ġoper": 1250,
      "sh": 1251,
      "ether": 1252,
      "OL": 1253,
      "chn": 1254,
      "ĠMarket": 1255,
      "ecut": 1256,
      "Ġprovid": 1257,
      "Ġbefore": 1258,
      "ced": 1259,
      "03": 1260,
      "Ġoffer": 1261,
      "ĠAt": 1262,
      "Ġmuch": 1263,
      "uth": 1264,
      "ĠEd": 1265,
      "Ġ14": 1266,
      "Ġpeople": 1267,
      "Ġend": 1268,
      "Ġmade": 1269,
      "';": 1270,
      "Ġspec": 1271,
      "io": 1272,
      "ied": 1273,
      "Ġsentence": 1274,
      "Ġshe": 1275,
      "Ġforward": 1276,
      "Ġaddress": 1277,
      "Ġmost": 1278,
      "exas": 1279,
      "Ġbetween": 1280,
      "Ġask": 1281,
      "enn": 1282,
      "ought": 1283,
      "ĠSc": 1284,
      "ĠHow": 1285,
      "Ġterm": 1286,
      "ify": 1287,
      "ĠNorth": 1288,
      "ĠTH": 1289,
      "ule": 1290,
      "Ġprices": 1291,
      "Ġ15": 1292,
      "ED": 1293,
      "ĠTe": 1294,
      "htm": 1295,
      "ĠCc": 1296,
      "ild": 1297,
      "04": 1298,
      "Ġcompanies": 1299,
      "ives": 1300,
      "ĠNo": 1301,
      "ize": 1302,
      "ĠDavid": 1303,
      "Ġcontin": 1304,
      "agement": 1305,
      "05": 1306,
      "ĠMan": 1307,
      "21": 1308,
      "Ġdoes": 1309,
      "way": 1310,
      "Ġrequire": 1311,
      "Ġplay": 1312,
      "Ġval": 1313,
      "Ġop": 1314,
      "AAAAAAAAAAAAAAAAAAAAAAAAAAAAAAAA": 1315,
      "gan": 1316,
      "ĠAss": 1317,
      "aking": 1318,
      "Ġexpect": 1319,
      "Ġtrading": 1320,
      "Ġ08": 1321,
      "Ġaddit": 1322,
      "Ġthose": 1323,
      "ĠJones": 1324,
      "Ġavailable": 1325,
      "iam": 1326,
      "ĠWill": 1327,
      "uary": 1328,
      "ĠUS": 1329,
      "ool": 1330,
      "Ġdif": 1331,
      "Ġfind": 1332,
      "Ġcredit": 1333,
      "Ġbuy": 1334,
      "Ġprocess": 1335,
      "Ġbl": 1336,
      "06": 1337,
      "ys": 1338,
      "ĠUpd": 1339,
      "Ġhigh": 1340,
      "Ġbelow": 1341,
      "ik": 1342,
      "olum": 1343,
      "Th": 1344,
      "aren": 1345,
      "Ġown": 1346,
      "Ġdevelop": 1347,
      "Ġorder": 1348,
      "AQ": 1349,
      "Ġthen": 1350,
      "ĠJanuary": 1351,
      "ST": 1352,
      "Ġform": 1353,
      "ĠCompany": 1354,
      "part": 1355,
      "ĠRep": 1356,
      "ipient": 1357,
      "Ġdocu": 1358,
      "ately": 1359,
      "ope": 1360,
      "ĠIN": 1361,
      "pr": 1362,
      "ki": 1363,
      "IG": 1364,
      "Ġleg": 1365,
      "rist": 1366,
      "Ġnumber": 1367,
      "aul": 1368,
      "ĠTexas": 1369,
      "resident": 1370,
      "Ġelectricity": 1371,
      "ĠSm": 1372,
      "Ġ20": 1373,
      "ĠCan": 1374,
      "ision": 1375,
      "ef": 1376,
      "cept": 1377,
      "orld": 1378,
      "Ġproject": 1379,
      "Ġsc": 1380,
      "Ġdist": 1381,
      "rit": 1382,
      "unications": 1383,
      "Ġposs": 1384,
      "ider": 1385,
      "Ġ;": 1386,
      "Ġbeing": 1387,
      "Ġfil": 1388,
      "une": 1389,
      "Ġfl": 1390,
      "au": 1391,
      "ration": 1392,
      "Ġaff": 1393,
      "hip": 1394,
      "lear": 1395,
      "ID": 1396,
      "Ġatt": 1397,
      "'\"": 1398,
      "Ġrecipient": 1399,
      "ert": 1400,
      "ept": 1401,
      "ĠSch": 1402,
      "ved": 1403,
      "Ġreceived": 1404,
      "Ġ\"'": 1405,
      "Ġduring": 1406,
      "Ġproble": 1407,
      "Ġdef": 1408,
      "ush": 1409,
      "earch": 1410,
      "Ġstock": 1411,
      "Ġprovide": 1412,
      "ting": 1413,
      "34": 1414,
      "Ġlaw": 1415,
      ".;": 1416,
      "ĠTrans": 1417,
      "Ġtalk": 1418,
      "Ġwhere": 1419,
      "Ġ25": 1420,
      "eral": 1421,
      "Ġfinancial": 1422,
      "ĠChris": 1423,
      "ĠGre": 1424,
      "ING": 1425,
      "Ġcomplet": 1426,
      "Ġperson": 1427,
      "icip": 1428,
      "ĠAr": 1429,
      "Ġyears": 1430,
      "ĠBl": 1431,
      "Ġincre": 1432,
      "08": 1433,
      "cent": 1434,
      "min": 1435,
      "eph": 1436,
      "ael": 1437,
      "ĠRichard": 1438,
      "Ġ----------------------": 1439,
      "atch": 1440,
      "Ġagainst": 1441,
      "ized": 1442,
      "ĠAm": 1443,
      "ital": 1444,
      "Ġob": 1445,
      "oss": 1446,
      "31": 1447,
      "AE": 1448,
      "Ġreceive": 1449,
      "other": 1450,
      "aster": 1451,
      "Ġset": 1452,
      "iate": 1453,
      "Ġagreement": 1454,
      "gg": 1455,
      "ĠTra": 1456,
      "Ġcopy": 1457,
      "til": 1458,
      "raft": 1459,
      "Ġsell": 1460,
      "ection": 1461,
      "........": 1462,
      "ators": 1463,
      "Ġpol": 1464,
      "Ġissues": 1465,
      "Ġbank": 1466,
      "Ġtext": 1467,
      "Ġbill": 1468,
      "Ġpurch": 1469,
      "Ġchange": 1470,
      "oney": 1471,
      "gram": 1472,
      "Ġpropos": 1473,
      "Ġest": 1474,
      "gate": 1475,
      "ring": 1476,
      "reet": 1477,
      "ĠBut": 1478,
      "CE": 1479,
      "ger": 1480,
      "Ġtransact": 1481,
      "++": 1482,
      "sel": 1483,
      "07": 1484,
      "Ġcustomers": 1485,
      "Ġplan": 1486,
      "DA": 1487,
      "Ġteam": 1488,
      "ĠAmerica": 1489,
      "ĠCont": 1490,
      "Ġ#": 1491,
      "mailto": 1492,
      "ral": 1493,
      "idential": 1494,
      "'re": 1495,
      "ics": 1496,
      "ised": 1497,
      "Ġsim": 1498,
      "Ġgreat": 1499,
      "Ġmany": 1500,
      "Ġsupport": 1501,
      "uthor": 1502,
      "Ġgive": 1503,
      "ination": 1504,
      "right": 1505,
      "Ġfund": 1506,
      "Ġ199": 1507,
      "Ġsure": 1508,
      "Ġservice": 1509,
      "ana": 1510,
      "Ġinst": 1511,
      "Ġdeli": 1512,
      "ĠSept": 1513,
      "ĠFERC": 1514,
      "Ġ@": 1515,
      "isit": 1516,
      "atural": 1517,
      "39": 1518,
      "stand": 1519,
      "ĠEl": 1520,
      "Ġeven": 1521,
      "Ġboth": 1522,
      "Ġ30": 1523,
      "Ġpr": 1524,
      "ator": 1525,
      "'ve": 1526,
      "Ġpass": 1527,
      "Ġdays": 1528,
      "ĠLet": 1529,
      "Ġ06": 1530,
      ");": 1531,
      "Ġgu": 1532,
      "ages": 1533,
      "Ġbas": 1534,
      "Ġregul": 1535,
      "ĠOff": 1536,
      "ged": 1537,
      "AM": 1538,
      "Ġsay": 1539,
      "Ġread": 1540,
      "ĠWest": 1541,
      "Ġ16": 1542,
      "Ġopp": 1543,
      "Ġrate": 1544,
      "ĠZ": 1545,
      "ares": 1546,
      "Ġmem": 1547,
      "ĠSan": 1548,
      "Ġprof": 1549,
      "ĠJames": 1550,
      "ĠCommission": 1551,
      "ĠDon": 1552,
      "Ġconc": 1553,
      "Ġwhile": 1554,
      "oard": 1555,
      "Ġbelie": 1556,
      "ean": 1557,
      "ĠDavis": 1558,
      "ty": 1559,
      "Ġ+": 1560,
      "mission": 1561,
      "ĠSmith": 1562,
      "Ġgovern": 1563,
      "Ġconfirm": 1564,
      "chnol": 1565,
      "come": 1566,
      "Ġ07": 1567,
      "scrib": 1568,
      "38": 1569,
      "ning": 1570,
      "cember": 1571,
      "ari": 1572,
      "ĠRober": 1573,
      "Ġra": 1574,
      "led": 1575,
      "Ġhour": 1576,
      "Ġexecut": 1577,
      "Ġnews": 1578,
      "Ġ18": 1579,
      "ĠMr": 1580,
      "35": 1581,
      "Ġpriv": 1582,
      "ĠFeb": 1583,
      "ĠUpdated": 1584,
      "Ġissue": 1585,
      "lish": 1586,
      "ĠSo": 1587,
      "Ġregard": 1588,
      "ĠAgreement": 1589,
      "Ġrisk": 1590,
      "ily": 1591,
      "arge": 1592,
      "Ġtry": 1593,
      "Ġclick": 1594,
      "Ġcontain": 1595,
      "html": 1596,
      "36": 1597,
      "Ġerr": 1598,
      "thing": 1599,
      "ĠYork": 1600,
      "Ġvi": 1601,
      "Ġuntil": 1602,
      "ĠOr": 1603,
      "ined": 1604,
      "Ġindust": 1605,
      "Ġput": 1606,
      "Ġkeep": 1607,
      "Ġbillion": 1608,
      "arry": 1609,
      "ĠSun": 1610,
      "ĠJune": 1611,
      "aj": 1612,
      "ĠSu": 1613,
      "Ġref": 1614,
      "ield": 1615,
      "ĠDecember": 1616,
      "75": 1617,
      "ĠTrad": 1618,
      "Ġmin": 1619,
      "Ġloc": 1620,
      "rict": 1621,
      "Ġsame": 1622,
      "ĠPG": 1623,
      "Ġann": 1624,
      "Ġmail": 1625,
      "ĠScott": 1626,
      "ĠPer": 1627,
      "ĠSteve": 1628,
      "Ġsince": 1629,
      "Ġmust": 1630,
      "Ġchanges": 1631,
      "Ġcomments": 1632,
      "ĠApp": 1633,
      "val": 1634,
      "Ġaccount": 1635,
      "work": 1636,
      "09": 1637,
      "Ġfree": 1638,
      "ĠThere": 1639,
      "conom": 1640,
      "rup": 1641,
      "ĠEN": 1642,
      "Ġ17": 1643,
      "te": 1644,
      "ortun": 1645,
      "////////": 1646,
      "ĠMarch": 1647,
      "Ġrun": 1648,
      "ents": 1649,
      "lement": 1650,
      "Ġlead": 1651,
      "Ġsom": 1652,
      "sw": 1653,
      "ĠX": 1654,
      "less": 1655,
      "Ġfut": 1656,
      "usan": 1657,
      "Ġoffice": 1658,
      "ĠJu": 1659,
      "rid": 1660,
      "Ġel": 1661,
      "Ġoffic": 1662,
      "ars": 1663,
      "Ġdata": 1664,
      "ense": 1665,
      "asp": 1666,
      "Ġworking": 1667,
      "37": 1668,
      "Ġdem": 1669,
      "Ġshort": 1670,
      "ĠVince": 1671,
      "ĠPaul": 1672,
      "ier": 1673,
      "ĠMichael": 1674,
      "ager": 1675,
      "Ġbook": 1676,
      "ĠCent": 1677,
      "comm": 1678,
      "ict": 1679,
      "ĠNY": 1680,
      "Ġdistrib": 1681,
      "ĠSou": 1682,
      "Ġaccess": 1683,
      "ales": 1684,
      "Ġsum": 1685,
      "LE": 1686,
      "ĠKay": 1687,
      "Ġopen": 1688,
      "Ġ********************************": 1689,
      "by": 1690,
      "acity": 1691,
      "ogy": 1692,
      "gi": 1693,
      "rupt": 1694,
      "ĠFW": 1695,
      "Ġincluding": 1696,
      "Ġemployees": 1697,
      "Ġint": 1698,
      "oci": 1699,
      "Ġbest": 1700,
      "duc": 1701,
      "head": 1702,
      "eline": 1703,
      "ĠNot": 1704,
      "aily": 1705,
      "47": 1706,
      "Ġmight": 1707,
      "ĠENA": 1708,
      "ources": 1709,
      "Ġrest": 1710,
      "ittee": 1711,
      "Ġshow": 1712,
      "Ġanal": 1713,
      "ĠDate": 1714,
      "713": 1715,
      "Ġthree": 1716,
      "ĠCommunications": 1717,
      "akes": 1718,
      "~~~~~~~~": 1719,
      "ĠServices": 1720,
      "Ġable": 1721,
      "Ġfile": 1722,
      "int": 1723,
      "ĠLe": 1724,
      "ĠApr": 1725,
      "Ġfirm": 1726,
      "AH": 1727,
      "ĠPart": 1728,
      "lob": 1729,
      "ared": 1730,
      "97": 1731,
      "Ġgame": 1732,
      "Ġcontracts": 1733,
      "Ġplace": 1734,
      "change": 1735,
      "Ġpossible": 1736,
      "ĠAcc": 1737,
      "Ġconsider": 1738,
      "48": 1739,
      "ison": 1740,
      "Ġconcern": 1741,
      "ving": 1742,
      "ners": 1743,
      "Ġcheck": 1744,
      "Ġpublic": 1745,
      "osed": 1746,
      "EW": 1747,
      "Ġhand": 1748,
      "elle": 1749,
      "AF": 1750,
      "ĠWilliam": 1751,
      "ording": 1752,
      "rate": 1753,
      "ross": 1754,
      "Ġcoun": 1755,
      "doc": 1756,
      "orrow": 1757,
      "ĠAug": 1758,
      "ramm": 1759,
      "Ġcour": 1760,
      "minist": 1761,
      "ĠSeptember": 1762,
      "ĠDo": 1763,
      "UC": 1764,
      "Xgate": 1765,
      "evin": 1766,
      "Ġpoint": 1767,
      "Ġweb": 1768,
      "ĠQu": 1769,
      "Ġfew": 1770,
      "Ġbu": 1771,
      "ĠChrist": 1772,
      "ute": 1773,
      "ĠSara": 1774,
      "enronXgate": 1775,
      "urther": 1776,
      "Ġdetail": 1777,
      "Ġpresent": 1778,
      "uro": 1779,
      "Ġrecent": 1780,
      "orning": 1781,
      "ential": 1782,
      "ability": 1783,
      "go": 1784,
      "Ġdeals": 1785,
      "med": 1786,
      "ĠSusan": 1787,
      "Ġinclude": 1788,
      "Ġinf": 1789,
      "Ġ13": 1790,
      "58": 1791,
      "ency": 1792,
      "MB": 1793,
      "ĠTO": 1794,
      "Ġ________________________________": 1795,
      "ĠThey": 1796,
      "Ġschedul": 1797,
      "Ġmod": 1798,
      "aps": 1799,
      "AAAAAA": 1800,
      "56": 1801,
      "ling": 1802,
      "Ġsm": 1803,
      "Fix": 1804,
      "Ġpercent": 1805,
      "In": 1806,
      "anks": 1807,
      "west": 1808,
      "Ġ26": 1809,
      "Ġcome": 1810,
      "ves": 1811,
      "arter": 1812,
      "Ġ/": 1813,
      "Ġallow": 1814,
      "ĠStreet": 1815,
      "Ġ=": 1816,
      "Ġtoo": 1817,
      "ĠWhat": 1818,
      "Ġfinal": 1819,
      "ready": 1820,
      "Ġpost": 1821,
      "wh": 1822,
      "ights": 1823,
      "EP": 1824,
      "ny": 1825,
      "Ġext": 1826,
      "BS": 1827,
      "Ġbro": 1828,
      "Ġfac": 1829,
      "ĠApril": 1830,
      "ĠAny": 1831,
      "ĠAN": 1832,
      "ĠBill": 1833,
      "Ġlim": 1834,
      "rol": 1835,
      "ĠPre": 1836,
      "Ġprogram": 1837,
      "ases": 1838,
      "Ġauthor": 1839,
      "ĠTHE": 1840,
      "Ġtop": 1841,
      "Ġreturn": 1842,
      "Ġsol": 1843,
      "eter": 1844,
      "Ġname": 1845,
      "Ġline": 1846,
      "Ġused": 1847,
      "lobal": 1848,
      "Ġins": 1849,
      "asy": 1850,
      "hib": 1851,
      "88": 1852,
      "ĠShe": 1853,
      "Ġdue": 1854,
      "ified": 1855,
      "Ġdate": 1856,
      "ĠSen": 1857,
      "the": 1858,
      "????????????????": 1859,
      "Ġabove": 1860,
      "Ġ24": 1861,
      "||": 1862,
      "Ġexper": 1863,
      "uel": 1864,
      "new": 1865,
      "Ġalready": 1866,
      "itch": 1867,
      "Ġregarding": 1868,
      "IA": 1869,
      "Ġdraft": 1870,
      "Ġsur": 1871,
      "Ġgramm": 1872,
      "az": 1873,
      "ually": 1874,
      "scribe": 1875,
      "ems": 1876,
      "Ġservices": 1877,
      "Ġupd": 1878,
      "tached": 1879,
      "na": 1880,
      "ĠCA": 1881,
      "ĠDan": 1882,
      "ĠIs": 1883,
      "eek": 1884,
      "ably": 1885,
      "ention": 1886,
      "lor": 1887,
      "Ġeffect": 1888,
      "Ġsoon": 1889,
      "Ġanother": 1890,
      "ĠRobert": 1891,
      "rey": 1892,
      "UR": 1893,
      "Ġhapp": 1894,
      "Ġparticip": 1895,
      "ials": 1896,
      "ience": 1897,
      "vers": 1898,
      "gin": 1899,
      "================================": 1900,
      "Ġbig": 1901,
      "ptions": 1902,
      "ivid": 1903,
      "ertain": 1904,
      "Ġdiffer": 1905,
      "rior": 1906,
      "ĠPR": 1907,
      "Ġevent": 1908,
      "iff": 1909,
      "off": 1910,
      "Ġreal": 1911,
      "ĠGr": 1912,
      "ĠJim": 1913,
      "ĠBy": 1914,
      "Ġ28": 1915,
      "ury": 1916,
      "Ġmoney": 1917,
      "Ġcase": 1918,
      "nal": 1919,
      "ina": 1920,
      "Ġlo": 1921,
      "Ġ27": 1922,
      "Ġadditional": 1923,
      "Ġaround": 1924,
      "ĠGe": 1925,
      "Ġview": 1926,
      "ĠBe": 1927,
      "Ġtom": 1928,
      "ĠGroup": 1929,
      "Ġattach": 1930,
      "Ġvisit": 1931,
      "Ġconfidential": 1932,
      "ĠJuly": 1933,
      "Ġletter": 1934,
      "ĠCap": 1935,
      "ief": 1936,
      "oints": 1937,
      "ĠTom": 1938,
      "ware": 1939,
      "55": 1940,
      "ederal": 1941,
      "Ġrates": 1942,
      "Ġhear": 1943,
      "Ġthought": 1944,
      "ĠPric": 1945,
      "sub": 1946,
      "Ġbelieve": 1947,
      "Ġequ": 1948,
      "ĠYour": 1949,
      "Ġremain": 1950,
      "Ġrespons": 1951,
      "CC": 1952,
      "ĠAugust": 1953,
      "ĠFax": 1954,
      "ivers": 1955,
      "Ġsever": 1956,
      "yne": 1957,
      "Ġ??": 1958,
      "iod": 1959,
      "ĠMary": 1960,
      "Ġindustry": 1961,
      "44": 1962,
      "Ġmorning": 1963,
      "ĠElectric": 1964,
      "Ġconsum": 1965,
      "853": 1966,
      "ox": 1967,
      "ither": 1968,
      "Ġgot": 1969,
      "Ġcapacity": 1970,
      "rew": 1971,
      "ester": 1972,
      "Ġagree": 1973,
      "ature": 1974,
      "Ġsite": 1975,
      "leton": 1976,
      "rong": 1977,
      "AY": 1978,
      "TR": 1979,
      "chnology": 1980,
      "Ġtr": 1981,
      "riend": 1982,
      "etwork": 1983,
      "Ġfact": 1984,
      "33": 1985,
      "back": 1986,
      "Ġcor": 1987,
      "Ġfuture": 1988,
      "Ġshare": 1989,
      "Ġbased": 1990,
      "ruary": 1991,
      "ynegy": 1992,
      "ittle": 1993,
      "ĠNews": 1994,
      "pect": 1995,
      "ĠMy": 1996,
      "erry": 1997,
      "ior": 1998,
      "ĠSunday": 1999,
      "ĠSec": 2000,
      "Ġcount": 2001,
      "ĠEuro": 2002,
      "Ġunderstand": 2003,
      "ĠTX": 2004,
      "ĠSe": 2005,
      "ĠJoe": 2006,
      "ĠEng": 2007,
      "Ġmarkets": 2008,
      "app": 2009,
      "ĠGo": 2010,
      "gress": 2011,
      "Ġsl": 2012,
      "OW": 2013,
      "ĠPresident": 2014,
      "thers": 2015,
      "iting": 2016,
      "IB": 2017,
      "Ġsugg": 2018,
      "Ġsuggest": 2019,
      "Ġwhether": 2020,
      "aff": 2021,
      "Ġposition": 2022,
      "bt": 2023,
      "Ġbetter": 2024,
      "alf": 2025,
      "rite": 2026,
      "ese": 2027,
      "vest": 2028,
      "Ġhead": 2029,
      "Ġcosts": 2030,
      "national": 2031,
      "Ġopportun": 2032,
      "Ġstand": 2033,
      "Ġeconom": 2034,
      "org": 2035,
      "90": 2036,
      "Ġhope": 2037,
      "ĠFebruary": 2038,
      "ĠDirect": 2039,
      "ackleton": 2040,
      "Ġfurther": 2041,
      "inc": 2042,
      "Ġtomorrow": 2043,
      "opyright": 2044,
      "Ġaccept": 2045,
      "Ġlevel": 2046,
      "arn": 2047,
      "Ġutility": 2048,
      "ĠCre": 2049,
      "Ġasked": 2050,
      "Ġfeel": 2051,
      "Ġcontinue": 2052,
      "Ġwon": 2053,
      "oles": 2054,
      "ĠKevin": 2055,
      "Ġsays": 2056,
      "ĠBen": 2057,
      "Ġpast": 2058,
      "icy": 2059,
      "US": 2060,
      "Ġless": 2061,
      "iven": 2062,
      "Ġwithout": 2063,
      "Ġreally": 2064,
      "59": 2065,
      "Ġmonths": 2066,
      "ulation": 2067,
      "Ġdemand": 2068,
      "vious": 2069,
      "49": 2070,
      "atab": 2071,
      "Ġimport": 2072,
      "ĠLeg": 2073,
      "Ġutilities": 2074,
      "ively": 2075,
      "Ġdone": 2076,
      "ĠISO": 2077,
      "Ġcar": 2078,
      "EX": 2079,
      "Ġwithin": 2080,
      "Ġsubject": 2081,
      "IR": 2082,
      "unch": 2083,
      "We": 2084,
      "Ġ------------------------------------------------": 2085,
      "ization": 2086,
      "Ġschedule": 2087,
      "pm": 2088,
      "Ġmanagement": 2089,
      "REE": 2090,
      "ĠLou": 2091,
      "Ġ>>>": 2092,
      "Ġrepresent": 2093,
      "Ġexpected": 2094,
      "IL": 2095,
      "Ġdocument": 2096,
      "ĠSteph": 2097,
      "Ġconference": 2098,
      "ĠSched": 2099,
      "ĠTR": 2100,
      "ued": 2101,
      "Ġbasis": 2102,
      "ersion": 2103,
      "Ġtax": 2104,
      "ler": 2105,
      "osure": 2106,
      "ister": 2107,
      "Ġlink": 2108,
      "Ġapplic": 2109,
      "=-": 2110,
      "aid": 2111,
      "gB": 2112,
      "Ġneeds": 2113,
      "Ġser": 2114,
      "amins": 2115,
      "Ġtest": 2116,
      "rip": 2117,
      "Ġdiscl": 2118,
      "Ġben": 2119,
      "Ġparty": 2120,
      "ically": 2121,
      "oice": 2122,
      "Ġ31": 2123,
      "57": 2124,
      "ĠCarol": 2125,
      "atory": 2126,
      "ATION": 2127,
      "Ġ22": 2128,
      ".?": 2129,
      "got": 2130,
      "Ġworld": 2131,
      "Ġonline": 2132,
      "orney": 2133,
      "terpart": 2134,
      "ird": 2135,
      "orts": 2136,
      "ĠEB": 2137,
      "ĠIm": 2138,
      "ĠInternet": 2139,
      "Ġ77": 2140,
      "Ġnon": 2141,
      "orpor": 2142,
      "ĠHowever": 2143,
      "Ġperform": 2144,
      "vert": 2145,
      "ĠBusiness": 2146,
      "Ġfound": 2147,
      "ington": 2148,
      "Ġsecond": 2149,
      "eed": 2150,
      "lex": 2151,
      "ular": 2152,
      "ĠMe": 2153,
      "Ġsit": 2154,
      "Ġhome": 2155,
      "ili": 2156,
      "VE": 2157,
      "Ġ:": 2158,
      "ĠHere": 2159,
      "ajor": 2160,
      "ĠDow": 2161,
      "ote": 2162,
      "Ġcover": 2163,
      "ĠEurope": 2164,
      "ife": 2165,
      "Ġnatural": 2166,
      "ĠWith": 2167,
      "ouse": 2168,
      "ahoo": 2169,
      "atabase": 2170,
      "ĠSta": 2171,
      "Ġnight": 2172,
      "!!!": 2173,
      "Ġ23": 2174,
      "pro": 2175,
      "Ġlater": 2176,
      "Ġrele": 2177,
      "Ġindic": 2178,
      "Ġinit": 2179,
      "energy": 2180,
      "Ġ21": 2181,
      "rick": 2182,
      "ĠMichelle": 2183,
      "ource": 2184,
      "ĠThat": 2185,
      "Ġphone": 2186,
      "Ġtold": 2187,
      "Ġweeks": 2188,
      "ca": 2189,
      "orm": 2190,
      "aim": 2191,
      "SE": 2192,
      "Ġmembers": 2193,
      "Ġjob": 2194,
      "Ġorig": 2195,
      "Ġprep": 2196,
      "thern": 2197,
      "OC": 2198,
      "Ġlittle": 2199,
      "LON": 2200,
      "ĠClick": 2201,
      "ĠState": 2202,
      "ividual": 2203,
      "asov": 2204,
      "AZ": 2205,
      "aol": 2206,
      "PL": 2207,
      "Ġmain": 2208,
      "Ġsw": 2209,
      "ipeline": 2210,
      "rect": 2211,
      "isa": 2212,
      "icle": 2213,
      "St": 2214,
      "Ġvalue": 2215,
      "ĠOF": 2216,
      "ĠHar": 2217,
      "arant": 2218,
      "ĠPat": 2219,
      "Ġcol": 2220,
      "ada": 2221,
      "Ġclear": 2222,
      "ĠAlso": 2223,
      ")\"": 2224,
      "Ġlow": 2225,
      "Ġmov": 2226,
      "rown": 2227,
      "Ġ****************************************************************": 2228,
      "ĠWR": 2229,
      "PR": 2230,
      "Ġimmed": 2231,
      "Ġet": 2232,
      "Ġrev": 2233,
      "Ġprom": 2234,
      "Ġdistribution": 2235,
      "ĠDep": 2236,
      "ĠDes": 2237,
      "els": 2238,
      "Ġlik": 2239,
      "Wh": 2240,
      "Ġdifferent": 2241,
      "lete": 2242,
      "Ġprior": 2243,
      "54": 2244,
      "opp": 2245,
      "Ġquestion": 2246,
      "tal": 2247,
      "ony": 2248,
      "ending": 2249,
      "Ġnote": 2250,
      "Ġresult": 2251,
      "Ġbankrupt": 2252,
      "ĠBar": 2253,
      "Ġseveral": 2254,
      "32": 2255,
      "Ġlooking": 2256,
      "Ġsett": 2257,
      "aper": 2258,
      "no": 2259,
      "ĠKen": 2260,
      "aminski": 2261,
      "wB": 2262,
      "ble": 2263,
      "ĠRegards": 2264,
      "=-=-": 2265,
      "ĠGu": 2266,
      "ceed": 2267,
      "isl": 2268,
      "Ġmove": 2269,
      "ething": 2270,
      "from": 2271,
      "Ġpurchase": 2272,
      "atus": 2273,
      "Ġfull": 2274,
      "subscribe": 2275,
      "ĠService": 2276,
      "ĠGener": 2277,
      "Ġred": 2278,
      "Ġproblem": 2279,
      "ĠRob": 2280,
      "Ġplant": 2281,
      "Ġcurrently": 2282,
      "Ġannoun": 2283,
      "ks": 2284,
      "Ġcompet": 2285,
      "TS": 2286,
      "Ġbuild": 2287,
      "Ġanything": 2288,
      "esterday": 2289,
      "ĠAre": 2290,
      "Ġfun": 2291,
      "asovich": 2292,
      "be": 2293,
      "Ġmater": 2294,
      "Ġty": 2295,
      "Ġproducts": 2296,
      "of": 2297,
      "Ġthings": 2298,
      "Ġturn": 2299,
      "ĠST": 2300,
      "Ġcal": 2301,
      "atter": 2302,
      "Ġgovernment": 2303,
      "Ġfar": 2304,
      "Ġfour": 2305,
      "Ġgetting": 2306,
      "ret": 2307,
      ".)": 2308,
      "Ġstud": 2309,
      "itted": 2310,
      "Ġtransmission": 2311,
      "Ġtrade": 2312,
      "Ġleft": 2313,
      "Ġindividual": 2314,
      "lines": 2315,
      "Ġshall": 2316,
      "ĠKe": 2317,
      "ĠMor": 2318,
      "Ġvolum": 2319,
      "Ġanyone": 2320,
      "olesale": 2321,
      "Ġair": 2322,
      "ules": 2323,
      "ĠDynegy": 2324,
      "ĠTime": 2325,
      "uation": 2326,
      "ĠWeb": 2327,
      "Ġfax": 2328,
      "'d": 2329,
      "ious": 2330,
      "******": 2331,
      "ĠBob": 2332,
      "ohn": 2333,
      "Ġothers": 2334,
      "ĠManagement": 2335,
      "ĠEdison": 2336,
      "Ġweekend": 2337,
      "ining": 2338,
      "Ġperiod": 2339,
      "Ġusing": 2340,
      "side": 2341,
      "Ġprot": 2342,
      "Ġsales": 2343,
      "ashington": 2344,
      "oot": 2345,
      "Ġsomething": 2346,
      "Ġdoing": 2347,
      "aging": 2348,
      "empt": 2349,
      "''": 2350,
      "aker": 2351,
      "ĠAng": 2352,
      "Ġlot": 2353,
      "reed": 2354,
      "ĠFREE": 2355,
      "ĠBush": 2356,
      "Ġnear": 2357,
      "Ġdocuments": 2358,
      "Ġdeliver": 2359,
      "Ġfriend": 2360,
      "Ġocc": 2361,
      "iqu": 2362,
      "Ġpoints": 2363,
      "Ġinvol": 2364,
      "Ġenter": 2365,
      "ministration": 2366,
      "igation": 2367,
      "airman": 2368,
      "Ġproblems": 2369,
      "gether": 2370,
      "ĠLay": 2371,
      "Ġide": 2372,
      "ired": 2373,
      "ords": 2374,
      "Ġmajor": 2375,
      "not": 2376,
      "Ġearly": 2377,
      "ipp": 2378,
      "Ġattend": 2379,
      "AAAAAAAAAAAA": 2380,
      "Ġfam": 2381,
      "uck": 2382,
      "ances": 2383,
      "ĠLind": 2384,
      "Ġexpl": 2385,
      "ĠNov": 2386,
      "AK": 2387,
      "PD": 2388,
      "Ġgrow": 2389,
      "inter": 2390,
      "ondon": 2391,
      "ĠOut": 2392,
      "77": 2393,
      "ĠCorpor": 2394,
      "CH": 2395,
      "Ġeither": 2396,
      "Ġcop": 2397,
      "Ġyet": 2398,
      "Ġhold": 2399,
      "ĠCredit": 2400,
      "ccess": 2401,
      "ĠAttached": 2402,
      "ney": 2403,
      "Ġspecial": 2404,
      "Ġhard": 2405,
      "ĠBro": 2406,
      "Ġerror": 2407,
      "PE": 2408,
      "Ġprovided": 2409,
      "ructure": 2410,
      "ĠEric": 2411,
      "otential": 2412,
      "Ġ29": 2413,
      "Ġbegin": 2414,
      "QAA": 2415,
      "ĠWhen": 2416,
      "Ġrequired": 2417,
      "An": 2418,
      "berg": 2419,
      "over": 2420,
      "Ġcalled": 2421,
      "angu": 2422,
      "ĠCopyright": 2423,
      "Ġlegal": 2424,
      "Ġsupply": 2425,
      "Ġpract": 2426,
      "Ġconst": 2427,
      "QB": 2428,
      "ino": 2429,
      "Ġactiv": 2430,
      "Ġyesterday": 2431,
      "cial": 2432,
      "ĠAct": 2433,
      "0000": 2434,
      "ĠOne": 2435,
      "ĠJust": 2436,
      "erved": 2437,
      "atth": 2438,
      "viron": 2439,
      "aug": 2440,
      "Ġreply": 2441,
      "uce": 2442,
      "pri": 2443,
      "ecess": 2444,
      "Ġlarg": 2445,
      "ĠKim": 2446,
      "ford": 2447,
      "Ġorgan": 2448,
      "42": 2449,
      "orge": 2450,
      "ĠEC": 2451,
      "Ġamount": 2452,
      "Ġdidn": 2453,
      "onse": 2454,
      "Ġplans": 2455,
      "Ġseason": 2456,
      "EO": 2457,
      "ĠAnn": 2458,
      "ĠShackleton": 2459,
      "ĠWashington": 2460,
      "itive": 2461,
      "rec": 2462,
      "Ġtell": 2463,
      "Ġdetails": 2464,
      "ecial": 2465,
      "Ġprohib": 2466,
      "Ġcash": 2467,
      "ires": 2468,
      "ĠTana": 2469,
      "Ġwanted": 2470,
      "avor": 2471,
      "ries": 2472,
      "Ġplants": 2473,
      "95": 2474,
      "Ġassist": 2475,
      "ode": 2476,
      "ĠNEW": 2477,
      "Ġproper": 2478,
      "Ġfore": 2479,
      "Ġtogether": 2480,
      "Ġguy": 2481,
      "Ġgr": 2482,
      "MC": 2483,
      "MT": 2484,
      "ĠCN": 2485,
      "Ġtransactions": 2486,
      "idence": 2487,
      "Ġimportant": 2488,
      "Ġcustomer": 2489,
      "Ġed": 2490,
      "though": 2491,
      "Ġspecific": 2492,
      "atives": 2493,
      "Ġinvestment": 2494,
      "43": 2495,
      "Ġelect": 2496,
      "Ġclose": 2497,
      "atthew": 2498,
      "ĠRo": 2499,
      "Ġreports": 2500,
      "Ġcare": 2501,
      "Ġcent": 2502,
      "Ġcomplete": 2503,
      "ĠAmerican": 2504,
      "lier": 2505,
      "ĠEm": 2506,
      "ATE": 2507,
      "ĠDepart": 2508,
      "Ġproposed": 2509,
      "It": 2510,
      "ane": 2511,
      "Ġwa": 2512,
      "ĠDay": 2513,
      "ĠCol": 2514,
      "risis": 2515,
      "Ġleast": 2516,
      "Ġ100": 2517,
      "Ġbenef": 2518,
      "Ġcut": 2519,
      "Ġprivile": 2520,
      "SA": 2521,
      "Ġpress": 2522,
      "ĠMcC": 2523,
      "ĠThom": 2524,
      "ls": 2525,
      "Ġvari": 2526,
      "orry": 2527,
      "izing": 2528,
      "76": 2529,
      "older": 2530,
      "Ġprobably": 2531,
      "enc": 2532,
      "ĠSand": 2533,
      "Ġmer": 2534,
      "ription": 2535,
      "CO": 2536,
      "ĠCity": 2537,
      "ocus": 2538,
      "ways": 2539,
      "ĠPort": 2540,
      "Ġdeterm": 2541,
      "ĠEr": 2542,
      "Ġincrease": 2543,
      "edu": 2544,
      "Ġtravel": 2545,
      "Ġdesign": 2546,
      "ĠLondon": 2547,
      "Ġversion": 2548,
      "ibility": 2549,
      "Ġpotential": 2550,
      "Make": 2551,
      "Ġbankruptcy": 2552,
      "anguage": 2553,
      "Ġbid": 2554,
      "Ġearn": 2555,
      "ĠRick": 2556,
      "41": 2557,
      "isions": 2558,
      "rian": 2559,
      "Ġreason": 2560,
      "Ġsender": 2561,
      "Ġjoin": 2562,
      "ĠWeek": 2563,
      "site": 2564,
      "ging": 2565,
      "Ġrespond": 2566,
      "Ġexist": 2567,
      "ĠVal": 2568,
      "Ġsecur": 2569,
      "Ġx": 2570,
      "wise": 2571,
      "Ġcontrol": 2572,
      "ĠBest": 2573,
      "Ġmiss": 2574,
      "Ġcorrect": 2575,
      "kill": 2576,
      "ĠFrank": 2577,
      "ĠGreg": 2578,
      "ĠSteven": 2579,
      "Ġdevelopment": 2580,
      "ĠFree": 2581,
      "Ġsummer": 2582,
      "antasy": 2583,
      "Ġappear": 2584,
      "Ġinterested": 2585,
      "vironment": 2586,
      "isco": 2587,
      "Ġhaving": 2588,
      "reg": 2589,
      "Ġlikely": 2590,
      "ĠWilliams": 2591,
      "atical": 2592,
      "ĠCoun": 2593,
      "Ġ200": 2594,
      "Ġsmall": 2595,
      "Ġtele": 2596,
      "Ġgiven": 2597,
      "Ġbeh": 2598,
      "iving": 2599,
      "ats": 2600,
      "ĠCenter": 2601,
      "ĠTimes": 2602,
      "ĠTrading": 2603,
      "Ġpar": 2604,
      "Ġreli": 2605,
      "ĠDeb": 2606,
      "ĠLisa": 2607,
      "rem": 2608,
      "ĠSouth": 2609,
      "wA": 2610,
      "ĠInvest": 2611,
      "yl": 2612,
      "verage": 2613,
      "ĠTim": 2614,
      "Ġdelete": 2615,
      "ĠPrice": 2616,
      "Ġquarter": 2617,
      "iately": 2618,
      "ERS": 2619,
      "Ġport": 2620,
      "Ġnumbers": 2621,
      "ĠKaminski": 2622,
      "ume": 2623,
      "ising": 2624,
      "Ġcounterpart": 2625,
      "Ġcopies": 2626,
      "ĠDasovich": 2627,
      "mercial": 2628,
      "Ġrespect": 2629,
      "Ġnecess": 2630,
      "Ġ50": 2631,
      "ĠDel": 2632,
      "NG": 2633,
      "igher": 2634,
      "Ġaddition": 2635,
      "199": 2636,
      "ĠRequ": 2637,
      "put": 2638,
      "ĠCall": 2639,
      "hart": 2640,
      "Ġcertain": 2641,
      "Ġvia": 2642,
      "alth": 2643,
      "ham": 2644,
      "Ġgrammatical": 2645,
      "Ġapproval": 2646,
      "Ġimmediately": 2647,
      "ĠPhone": 2648,
      "ĠAngel": 2649,
      "ift": 2650,
      "ĠPal": 2651,
      "ISO": 2652,
      "Ġoriginal": 2653,
      "ĠGlobal": 2654,
      "ĠReport": 2655,
      "ĠRB": 2656,
      "Ġsch": 2657,
      "ĠCour": 2658,
      "ĠMid": 2659,
      "raph": 2660,
      "YA": 2661,
      "den": 2662,
      "ĠAir": 2663,
      "ĠHot": 2664,
      "sp": 2665,
      "Ġ????": 2666,
      "ask": 2667,
      "AAA": 2668,
      "Ġterms": 2669,
      "Ġmet": 2670,
      "ĠJeffrey": 2671,
      "Ġcreate": 2672,
      "Ġpresident": 2673,
      "++++": 2674,
      "commend": 2675,
      "ĠCons": 2676,
      "ille": 2677,
      "ĠISDA": 2678,
      "ĠFOR": 2679,
      "ĠBrad": 2680,
      "ĠAssoci": 2681,
      "Ch": 2682,
      "orage": 2683,
      "66": 2684,
      "utions": 2685,
      "78": 2686,
      "ĠBr": 2687,
      "MENT": 2688,
      "Ġcharg": 2689,
      "ĠOper": 2690,
      "uff": 2691,
      "Ġhours": 2692,
      "ĠDepartment": 2693,
      "self": 2694,
      "based": 2695,
      "ĠAND": 2696,
      "hr": 2697,
      "Ġnegot": 2698,
      "Ġprohibited": 2699,
      "Ġnever": 2700,
      "erve": 2701,
      "iles": 2702,
      "lin": 2703,
      "get": 2704,
      "Ġtotal": 2705,
      "Ġtransaction": 2706,
      "Ġneeded": 2707,
      "Ġround": 2708,
      "Ġdaily": 2709,
      "Ġsuccess": 2710,
      "ĠCO": 2711,
      "ball": 2712,
      "Ġbring": 2713,
      "ĠLyn": 2714,
      "Ġdecision": 2715,
      "Ġaction": 2716,
      "ESS": 2717,
      "Ġprevious": 2718,
      "ĠMag": 2719,
      "PA": 2720,
      "Ġtrying": 2721,
      "Ġloss": 2722,
      "ĠSystem": 2723,
      "Ġev": 2724,
      "Ġboard": 2725,
      "Ġscheduled": 2726,
      "Ġlanguage": 2727,
      "itor": 2728,
      "ĠMart": 2729,
      "Ġansw": 2730,
      "Ġarea": 2731,
      "hot": 2732,
      "TO": 2733,
      "ected": 2734,
      "Ġmaterial": 2735,
      "rial": 2736,
      "52": 2737,
      "LC": 2738,
      "Ġresponse": 2739,
      "eal": 2740,
      "Ġhigher": 2741,
      "Ġhowever": 2742,
      "bin": 2743,
      "ysis": 2744,
      "Ġstrate": 2745,
      "ows": 2746,
      "Ġoil": 2747,
      "Ġinvestors": 2748,
      "ĠCur": 2749,
      "ĠContract": 2750,
      "ym": 2751,
      "646": 2752,
      "itions": 2753,
      "Ġsale": 2754,
      "ĠMill": 2755,
      "Ġdatabase": 2756,
      "emp": 2757,
      "ĠBank": 2758,
      "aturday": 2759,
      "Ġfocus": 2760,
      "ĠLa": 2761,
      "Ġbr": 2762,
      "Ġsomeone": 2763,
      "enture": 2764,
      "ounts": 2765,
      "Ġsubm": 2766,
      "Ġpolicy": 2767,
      "ĠLegal": 2768,
      "ĠOur": 2769,
      "2002": 2770,
      "Ġclaim": 2771,
      "Cal": 2772,
      "ĠCON": 2773,
      "epend": 2774,
      "Ġgeneration": 2775,
      "Ġnotice": 2776,
      "98": 2777,
      "Ġtimes": 2778,
      "Ġart": 2779,
      "Ġlower": 2780,
      "aylor": 2781,
      "ĠCommittee": 2782,
      "ĠChar": 2783,
      "Ġpur": 2784,
      "ĠDet": 2785,
      "Ġwhy": 2786,
      "term": 2787,
      "Ġeveryone": 2788,
      "Ġcrisis": 2789,
      "ĠGeorge": 2790,
      "Ġplann": 2791,
      "ody": 2792,
      "ĠDec": 2793,
      "Ġetc": 2794,
      "Ġfail": 2795,
      "Ġmaking": 2796,
      "gr": 2797,
      "Ġtaking": 2798,
      "Ġstaff": 2799,
      "ĠSher": 2800,
      "100": 2801,
      "ĠFantasy": 2802,
      "Ġdelivery": 2803,
      "atest": 2804,
      "YI": 2805,
      "Ġtechnology": 2806,
      "phone": 2807,
      "ĠBrown": 2808,
      "Ġdel": 2809,
      "TY": 2810,
      "ists": 2811,
      "Ġwish": 2812,
      "MS": 2813,
      "email": 2814,
      "Ġprivileged": 2815,
      "wAA": 2816,
      "Ġthird": 2817,
      "ults": 2818,
      "Ġselect": 2819,
      "eting": 2820,
      "ĠExchange": 2821,
      "ification": 2822,
      "ĠSw": 2823,
      "Ġimpro": 2824,
      "Ġestim": 2825,
      "51": 2826,
      "Ġold": 2827,
      "anie": 2828,
      "elson": 2829,
      "Ġ`": 2830,
      "ftware": 2831,
      "Ġquick": 2832,
      "gAA": 2833,
      "ĠTeam": 2834,
      "ured": 2835,
      "cgi": 2836,
      "Ġoptions": 2837,
      "Ġapprec": 2838,
      "ĠCEO": 2839,
      "Ġwar": 2840,
      "ĠRisk": 2841,
      "ĠDem": 2842,
      "UN": 2843,
      "inance": 2844,
      "Ġpartners": 2845,
      "Ġcorpor": 2846,
      "ĠProduct": 2847,
      "Ġfall": 2848,
      "isc": 2849,
      "ĠMaster": 2850,
      "ificant": 2851,
      "reak": 2852,
      "roll": 2853,
      "ĠWall": 2854,
      "Ġinj": 2855,
      "lu": 2856,
      "ensive": 2857,
      "ĠFinal": 2858,
      "Ġrecommend": 2859,
      "EA": 2860,
      "Ġenough": 2861,
      "Ġstatus": 2862,
      "ANS": 2863,
      "Ġelse": 2864,
      "Ġsigned": 2865,
      "UT": 2866,
      "ĠUt": 2867,
      "ĠCapital": 2868,
      "iversity": 2869,
      "ĠGovern": 2870,
      "Ġassets": 2871,
      "Ġadded": 2872,
      "Ġrelated": 2873,
      "ont": 2874,
      "Ġdiscussed": 2875,
      "Ġincluded": 2876,
      "lished": 2877,
      "uke": 2878,
      "Ġspe": 2879,
      "Ġdoll": 2880,
      "ĠAAAAAAAAAAAAAAAAAAAAAAAAAAAAAAAA": 2881,
      "Ġcrit": 2882,
      "Ġmid": 2883,
      "ĠKaren": 2884,
      "ĠFranc": 2885,
      "Ġlate": 2886,
      "Ġwholesale": 2887,
      "cast": 2888,
      "ried": 2889,
      "Ġwww": 2890,
      "Ġclass": 2891,
      "ĠNOT": 2892,
      "----------------------": 2893,
      "Ġguarant": 2894,
      "Ġfederal": 2895,
      "Ġroom": 2896,
      "ĠMann": 2897,
      "ĠConf": 2898,
      "Ġtick": 2899,
      "amed": 2900,
      "ald": 2901,
      "ferred": 2902,
      "alance": 2903,
      "Ġattachments": 2904,
      "bert": 2905,
      "Ġlisted": 2906,
      "ences": 2907,
      "This": 2908,
      "Ġlarge": 2909,
      "vant": 2910,
      "ĠEES": 2911,
      "Ġagreed": 2912,
      "ental": 2913,
      "Ġconsumers": 2914,
      "Ġcommunic": 2915,
      "Ġunit": 2916,
      "ium": 2917,
      "Ġ**********************************************************************": 2918,
      "ĠBoard": 2919,
      "ĠSaturday": 2920,
      "Ġopportunity": 2921,
      "abeth": 2922,
      "Ġdisclosure": 2923,
      "Ġinitial": 2924,
      "ĠHigh": 2925,
      "ĠYOU": 2926,
      "ĠFinancial": 2927,
      "ead": 2928,
      "Ġshares": 2929,
      "Ġpage": 2930,
      "ĠCourt": 2931,
      "PS": 2932,
      "800": 2933,
      "alt": 2934,
      "cf": 2935,
      "ĠDave": 2936,
      "clus": 2937,
      "ĠWork": 2938,
      "ample": 2939,
      "ĠRod": 2940,
      "edia": 2941,
      "ĠFI": 2942,
      "Ġcondit": 2943,
      "ĠCanada": 2944,
      "Ġotherwise": 2945,
      "Ġanalyst": 2946,
      "Ġthanks": 2947,
      "Ġlegisl": 2948,
      "Ġblack": 2949,
      "Ġdebt": 2950,
      "ĠBrian": 2951,
      "ĠTravel": 2952,
      "Ġexc": 2953,
      "COM": 2954,
      "500": 2955,
      "Ġalways": 2956,
      "ĠPet": 2957,
      "aken": 2958,
      "rop": 2959,
      "ten": 2960,
      "enhart": 2961,
      "Ġpolit": 2962,
      "illip": 2963,
      "acific": 2964,
      "onn": 2965,
      "Ġlog": 2966,
      "izabeth": 2967,
      "Ġonce": 2968,
      "Ġago": 2969,
      "ĠAAAAAAAAAAAAAAAAAAAAAAAAAAAAAAAAAAAAAAAAAAAAAAAAAAAAAAAAAAAAAAAA": 2970,
      "ene": 2971,
      "ĠMin": 2972,
      "Ġhot": 2973,
      "Ġsignificant": 2974,
      "BA": 2975,
      "Ġproduc": 2976,
      "EST": 2977,
      "iver": 2978,
      "ĠPol": 2979,
      "noon": 2980,
      "TH": 2981,
      "Ġ!!!": 2982,
      "Ġcourse": 2983,
      "96": 2984,
      "ĠRequest": 2985,
      "En": 2986,
      "Rem": 2987,
      "ĠAAAAAAAAAAAAAAAAAAAAAAAAAAAAAAAAAAAAAAAAAAAAAAAAAAAAAAAAAAAAAAAAAAAAAAAAAAAA": 2988,
      "Ġnecessary": 2989,
      "Ġsimp": 2990,
      "ude": 2991,
      "ĠInternational": 2992,
      "Ġkey": 2993,
      "ĠMatthew": 2994,
      "aso": 2995,
      "Ġsole": 2996,
      "ĠThese": 2997,
      "ness": 2998,
      "ports": 2999,
      "lie": 3000,
      "erc": 3001,
      "ering": 3002,
      "Ġpaid": 3003,
      "ĠNelson": 3004,
      "Ġrequested": 3005,
      "ĠGet": 3006,
      "ĠDen": 3007,
      "ĠIT": 3008,
      "ĠWorld": 3009,
      "................": 3010,
      "Ġ77002": 3011,
      "Ġheld": 3012,
      "Ġattempt": 3013,
      "load": 3014,
      ">>": 3015,
      "Ġident": 3016,
      "yd": 3017,
      "urb": 3018,
      "John": 3019,
      "utes": 3020,
      "hold": 3021,
      "AAB": 3022,
      "Ġresearch": 3023,
      "ĠHouse": 3024,
      "ĠSP": 3025,
      "Ġload": 3026,
      "ependent": 3027,
      "Ġproceed": 3028,
      "Ġcoming": 3029,
      "ides": 3030,
      "da": 3031,
      "Ġupon": 3032,
      "XG": 3033,
      "Ġdesc": 3034,
      "imin": 3035,
      "Ġfunds": 3036,
      "At": 3037,
      "ĠMo": 3038,
      "ila": 3039,
      "ermany": 3040,
      "Ġupdate": 3041,
      "venue": 3042,
      "Ġformer": 3043,
      "Ġnegoti": 3044,
      "oke": 3045,
      "ĠMore": 3046,
      "Ġproduction": 3047,
      "time": 3048,
      "/////": 3049,
      "ĠPark": 3050,
      "ĠBlack": 3051,
      "omin": 3052,
      "Ġerrors": 3053,
      "ĠCustom": 3054,
      "elf": 3055,
      "Ġens": 3056,
      "Ġfive": 3057,
      "ĠAL": 3058,
      "Ġalong": 3059,
      "Ġchanged": 3060,
      "Ġstrong": 3061,
      "Ġresol": 3062,
      "ns": 3063,
      "ĠNow": 3064,
      "loor": 3065,
      "Ġoccur": 3066,
      "OV": 3067,
      "Ġpayment": 3068,
      "ĠAT": 3069,
      "Ġbond": 3070,
      "ĠBra": 3071,
      "ĠID": 3072,
      "Ġinfo": 3073,
      "joy": 3074,
      "ĠJack": 3075,
      "ker": 3076,
      "ĠAb": 3077,
      "raw": 3078,
      "Ġclos": 3079,
      "ĠSupp": 3080,
      "Ġpipeline": 3081,
      "EB": 3082,
      "60": 3083,
      "Ġbecome": 3084,
      "ysical": 3085,
      "Ġaway": 3086,
      "rive": 3087,
      "ica": 3088,
      "mary": 3089,
      "ĠTerm": 3090,
      "Ġacqu": 3091,
      "tern": 3092,
      "Ġcannot": 3093,
      "ĠCOM": 3094,
      "Ġlatest": 3095,
      "arent": 3096,
      "ĠAS": 3097,
      "ĠEOL": 3098,
      "effes": 3099,
      "ream": 3100,
      "Ġparties": 3101,
      "ĠPublic": 3102,
      "ĠLaw": 3103,
      "times": 3104,
      "ĠDirector": 3105,
      "Ġaccording": 3106,
      "Ġspread": 3107,
      "Ġmatter": 3108,
      "Ġreported": 3109,
      "Ġpack": 3110,
      "Ġpick": 3111,
      "Ġexperience": 3112,
      "Ġeng": 3113,
      "ĠPhillip": 3114,
      "Ġwent": 3115,
      "Ġlimited": 3116,
      "ordin": 3117,
      "ived": 3118,
      "ĠQB": 3119,
      "asing": 3120,
      "PC": 3121,
      "On": 3122,
      "80": 3123,
      "Ġgenerators": 3124,
      "CR": 3125,
      "Ġ1400": 3126,
      "Ġdirectly": 3127,
      "ĠHol": 3128,
      "Ġsold": 3129,
      "Ġearlier": 3130,
      "Ġstay": 3131,
      "my": 3132,
      "ereg": 3133,
      "ĠNatural": 3134,
      "Ġunsubscribe": 3135,
      "ĠAfter": 3136,
      "Ġcommercial": 3137,
      "Ġnetwork": 3138,
      "||||": 3139,
      "ĠDar": 3140,
      "Ġthing": 3141,
      "Ġafternoon": 3142,
      "ĠTr": 3143,
      "Ġrepl": 3144,
      "ored": 3145,
      "ges": 3146,
      "ĠBuy": 3147,
      "Remove": 3148,
      "ĠAnal": 3149,
      "ĠResources": 3150,
      "Ġlife": 3151,
      "ĠON": 3152,
      "ĠNational": 3153,
      "ĠAA": 3154,
      "erald": 3155,
      "Rew": 3156,
      "ico": 3157,
      "Ġspok": 3158,
      "Ġstarting": 3159,
      "Ġcoup": 3160,
      "ouch": 3161,
      "Ġcapital": 3162,
      "just": 3163,
      "ĠFrancisco": 3164,
      "Ġfeed": 3165,
      "ism": 3166,
      "89": 3167,
      "af": 3168,
      "ĠElizabeth": 3169,
      "ĠSecur": 3170,
      "ĠAust": 3171,
      "elly": 3172,
      "Ġdecl": 3173,
      "Ġwin": 3174,
      "gov": 3175,
      "Ġcomput": 3176,
      "Ġpartic": 3177,
      "Ġmention": 3178,
      "pris": 3179,
      "XGate": 3180,
      "ĠUnited": 3181,
      "Ġenvironment": 3182,
      "bC": 3183,
      "wI": 3184,
      "EnronXGate": 3185,
      "ĠCorporation": 3186,
      "ĠPacific": 3187,
      "ety": 3188,
      "ha": 3189,
      "ky": 3190,
      "ĠExp": 3191,
      "Ġlargest": 3192,
      "Ġthough": 3193,
      "Ġappropri": 3194,
      "Ġclosed": 3195,
      "ession": 3196,
      "Ġhappen": 3197,
      "ĠSteffes": 3198,
      "Ġes": 3199,
      "Ġofficials": 3200,
      "reen": 3201,
      "Ġdiff": 3202,
      "Ġreserv": 3203,
      "ĠJenn": 3204,
      "look": 3205,
      "oe": 3206,
      "ĠMem": 3207,
      "Ġstrict": 3208,
      "Ġdoesn": 3209,
      "Ġproposal": 3210,
      "ago": 3211,
      "AIL": 3212,
      "gD": 3213,
      "ĠGary": 3214,
      "Ġgeneral": 3215,
      "Ġguys": 3216,
      "ĠRights": 3217,
      "grad": 3218,
      "tra": 3219,
      "Ġearnings": 3220,
      "Ġoption": 3221,
      "ĠFR": 3222,
      "ĠSee": 3223,
      "ĠNet": 3224,
      "WR": 3225,
      "ĠFirst": 3226,
      "PMI": 3227,
      "Ġleave": 3228,
      "Ġassign": 3229,
      "Ġ``": 3230,
      "iro": 3231,
      "***": 3232,
      "ĠTaylor": 3233,
      "Ġflow": 3234,
      "Ġworth": 3235,
      "she": 3236,
      "ĠStephanie": 3237,
      "See": 3238,
      "86": 3239,
      "ĠGeneral": 3240,
      "Ġqual": 3241,
      "ĠWhite": 3242,
      "ĠOR": 3243,
      "ĠThomas": 3244,
      "Ġlonger": 3245,
      "apan": 3246,
      "Ġtransport": 3247,
      "////////////////": 3248,
      "Ġrecently": 3249,
      "Ġrights": 3250,
      "Ġimpact": 3251,
      "TI": 3252,
      "ĠLes": 3253,
      "Ġfiled": 3254,
      "ifer": 3255,
      "Ġmean": 3256,
      "ĠMarketing": 3257,
      "airs": 3258,
      "fol": 3259,
      "ĠEast": 3260,
      "Ġcountry": 3261,
      "TC": 3262,
      "Ġmodel": 3263,
      "Ġefforts": 3264,
      "OS": 3265,
      "fully": 3266,
      "ser": 3267,
      "ĠAB": 3268,
      "bl": 3269,
      "Ġschool": 3270,
      "ournal": 3271,
      "hotmail": 3272,
      "To": 3273,
      "down": 3274,
      "Ġcr": 3275,
      "vey": 3276,
      "Ġtaken": 3277,
      "Ġcommittee": 3278,
      "ĠFund": 3279,
      "\".": 3280,
      "ump": 3281,
      "ĠCP": 3282,
      "Ġvol": 3283,
      "SB": 3284,
      "pose": 3285,
      "##": 3286,
      "Al": 3287,
      "1999": 3288,
      "TYPE": 3289,
      "Ġcomment": 3290,
      "ĠUniversity": 3291,
      "ĠWar": 3292,
      "ault": 3293,
      "ĠMel": 3294,
      "ĠJul": 3295,
      "Ġrules": 3296,
      "utral": 3297,
      "ĠPeter": 3298,
      "Ġaud": 3299,
      "ĠMaggi": 3300,
      "Ġdep": 3301,
      "Ġentity": 3302,
      "ered": 3303,
      "oper": 3304,
      "Ġoperations": 3305,
      "Ġaffili": 3306,
      "Ġchance": 3307,
      "ĠKath": 3308,
      "state": 3309,
      "action": 3310,
      "PDX": 3311,
      "ĠPe": 3312,
      "Ġparticular": 3313,
      "Ġever": 3314,
      "Ġrelease": 3315,
      "Ġcourt": 3316,
      "Un": 3317,
      "70": 3318,
      "ruction": 3319,
      "Ġexisting": 3320,
      "Ġoffers": 3321,
      "Ġproperty": 3322,
      "pdf": 3323,
      "Ġcharge": 3324,
      "ĠRece": 3325,
      "Ġitems": 3326,
      "lean": 3327,
      "Ġkind": 3328,
      "IF": 3329,
      "ĠSenate": 3330,
      "Ġimplement": 3331,
      "Ġagreements": 3332,
      "Ġcontrib": 3333,
      "ĠGreen": 3334,
      "ĠSouthern": 3335,
      "ai": 3336,
      "ĠTRANS": 3337,
      "Ġstrictly": 3338,
      "icult": 3339,
      "Ġpub": 3340,
      "Ġmember": 3341,
      "Ġseen": 3342,
      "ĠMeeting": 3343,
      "cul": 3344,
      "power": 3345,
      "Ġcompleted": 3346,
      "Ġfiling": 3347,
      "cont": 3348,
      "Ġconcerns": 3349,
      "news": 3350,
      "force": 3351,
      "Ġlocal": 3352,
      "range": 3353,
      "Ġauthorized": 3354,
      "IP": 3355,
      "itz": 3356,
      "gest": 3357,
      "bur": 3358,
      "rief": 3359,
      "Ġside": 3360,
      "Ġcoll": 3361,
      "UAA": 3362,
      "aine": 3363,
      "Ġoutside": 3364,
      "Ġfollows": 3365,
      "ĠGermany": 3366,
      "ĠSub": 3367,
      "Ġdepart": 3368,
      "ĠOffice": 3369,
      "Ġ________________________________________________________________": 3370,
      "Ġcame": 3371,
      "Ġpaper": 3372,
      "ĠStan": 3373,
      "Ġfamily": 3374,
      "ĠDoug": 3375,
      "Ġsystems": 3376,
      "icient": 3377,
      "Ġresults": 3378,
      "Ġdr": 3379,
      "Ex": 3380,
      "ĠJapan": 3381,
      "nytimes": 3382,
      "Ġmark": 3383,
      "ez": 3384,
      "imately": 3385,
      "Ġstep": 3386,
      "Ġopin": 3387,
      "Ġretail": 3388,
      "Ġready": 3389,
      "ĠDie": 3390,
      "ĠJr": 3391,
      "Ġobl": 3392,
      "ĠDevelop": 3393,
      "chron": 3394,
      "Ġinterview": 3395,
      "uted": 3396,
      "Ġbills": 3397,
      "ĠEPMI": 3398,
      "Ġchief": 3399,
      "ront": 3400,
      "ĠLong": 3401,
      "Ġdifficult": 3402,
      "Ġnotify": 3403,
      "Ġmeas": 3404,
      "ĠRed": 3405,
      "Ġ1999": 3406,
      "GY": 3407,
      "ĠAv": 3408,
      "ĠLos": 3409,
      "Ġfuel": 3410,
      "ĠSup": 3411,
      "ĠFirm": 3412,
      "kins": 3413,
      "Ġ)": 3414,
      "ĠInformation": 3415,
      "ĠPar": 3416,
      "ĠNor": 3417,
      "epar": 3418,
      "iel": 3419,
      "ĠSC": 3420,
      "Ġrefer": 3421,
      "band": 3422,
      "Ġdest": 3423,
      "ided": 3424,
      "Ġreflect": 3425,
      "Ġz": 3426,
      "Ġannounced": 3427,
      "ĠSyn": 3428,
      "Ġapproved": 3429,
      "Ġlost": 3430,
      "tp": 3431,
      "Ġbad": 3432,
      "Ġexecutive": 3433,
      "law": 3434,
      "icago": 3435,
      "Ġ?????": 3436,
      "bia": 3437,
      "ĠInt": 3438,
      "ories": 3439,
      "____________": 3440,
      "ĠPUC": 3441,
      "Ġaverage": 3442,
      "Ġtook": 3443,
      "ouble": 3444,
      "Data": 3445,
      "ITY": 3446,
      "AAD": 3447,
      "ĠNetwork": 3448,
      "Ġrelevant": 3449,
      "ĠDaily": 3450,
      "ecutive": 3451,
      "hing": 3452,
      "ilar": 3453,
      "ĠPaso": 3454,
      "akers": 3455,
      "Ġensure": 3456,
      "Ġeffective": 3457,
      "TER": 3458,
      "Ġappropriate": 3459,
      "acy": 3460,
      "79": 3461,
      "Ġapproach": 3462,
      "SC": 3463,
      "Ġhist": 3464,
      "Ġsituation": 3465,
      "ĠJohnson": 3466,
      "anda": 3467,
      "ĠIndia": 3468,
      "MA": 3469,
      "ĠCount": 3470,
      "Ġsix": 3471,
      "ĠCD": 3472,
      "ĠLarry": 3473,
      "Ġcorporate": 3474,
      "ĠAgent": 3475,
      "Ġconn": 3476,
      "gs": 3477,
      "ias": 3478,
      "yahoo": 3479,
      "Ġdesk": 3480,
      "coming": 3481,
      "Ġhearing": 3482,
      "Ġmult": 3483,
      "Ġwebsite": 3484,
      "Ġcommission": 3485,
      "ĠPhil": 3486,
      "ĠConference": 3487,
      "LY": 3488,
      "Ġpersonal": 3489,
      "Ġgrowth": 3490,
      "Ġanalysis": 3491,
      "ĠPartners": 3492,
      "Ġfield": 3493,
      "ĠChairman": 3494,
      "Ġnamed": 3495,
      "Ġinvolved": 3496,
      "ĠENRON": 3497,
      "Ġidea": 3498,
      "SU": 3499,
      "Ġwants": 3500,
      "aphr": 3501,
      "Ġyards": 3502,
      "iAC": 3503,
      "iliate": 3504,
      "Ġsuff": 3505,
      "leg": 3506,
      "ders": 3507,
      "ĠRet": 3508,
      "letter": 3509,
      "Ġweather": 3510,
      "ĠHi": 3511,
      "ĠIss": 3512,
      "ĠTW": 3513,
      "fax": 3514,
      "ĠReserved": 3515,
      "imum": 3516,
      "Ġdereg": 3517,
      "Ġperformance": 3518,
      "gC": 3519,
      "Ġbusinesses": 3520,
      "Ġevidence": 3521,
      "ĠFl": 3522,
      "Ġresponsible": 3523,
      "ĠProject": 3524,
      "lett": 3525,
      "ĠMartin": 3526,
      "ĠInst": 3527,
      "Ġpositions": 3528,
      "year": 3529,
      "Ġgroups": 3530,
      "ronic": 3531,
      "field": 3532,
      "ĠLinda": 3533,
      "Ġinform": 3534,
      "ĠII": 3535,
      "Ġstorage": 3536,
      "Ġtrades": 3537,
      "Ġwrit": 3538,
      "ĠLLC": 3539,
      "Ġbreak": 3540,
      "ĠWood": 3541,
      "OD": 3542,
      "urance": 3543,
      "ĠAngeles": 3544,
      "Ġdiscussion": 3545,
      "ĠHun": 3546,
      "AJ": 3547,
      "ĠdbC": 3548,
      "ĠdbCaps": 3549,
      "Ġmist": 3550,
      "Ġprofit": 3551,
      "ĠSam": 3552,
      "ĠCor": 3553,
      "ĠLo": 3554,
      "inner": 3555,
      "ĠYahoo": 3556,
      "ĠCH": 3557,
      "Ġrole": 3558,
      "Ġbuying": 3559,
      "rd": 3560,
      "era": 3561,
      "ĠOil": 3562,
      "Ġhalf": 3563,
      "Ġaccounting": 3564,
      "Ġ----------------------------------------------------------------": 3565,
      "Ġestab": 3566,
      "ĠManager": 3567,
      "word": 3568,
      "Ġattorney": 3569,
      "GT": 3570,
      "Please": 3571,
      "ĠSum": 3572,
      "Ġlearn": 3573,
      "Ġarg": 3574,
      "ĠLouise": 3575,
      "ixed": 3576,
      "Ġvolume": 3577,
      "ĠTy": 3578,
      "RC": 3579,
      "Ġamend": 3580,
      "ĠMW": 3581,
      "ĠMiller": 3582,
      "Ġcouple": 3583,
      "uling": 3584,
      "acation": 3585,
      "ĠChicago": 3586,
      "Ġstates": 3587,
      "Ġsoftware": 3588,
      "allen": 3589,
      "itten": 3590,
      "otal": 3591,
      "mon": 3592,
      "Ġconsult": 3593,
      "ĠNe": 3594,
      "ICE": 3595,
      "rell": 3596,
      "Ġexpress": 3597,
      "Ġcity": 3598,
      "Ġbroad": 3599,
      "Ġfeedback": 3600,
      "cm": 3601,
      "ersen": 3602,
      "aring": 3603,
      "Ġ38": 3604,
      "Ġenjoy": 3605,
      "augh": 3606,
      "error": 3607,
      "ĠFederal": 3608,
      "ounds": 3609,
      "67": 3610,
      "~~~~~~~~~~~~~~~~": 3611,
      "Ġhouse": 3612,
      "Ġtraders": 3613,
      "Sh": 3614,
      "well": 3615,
      "ĠName": 3616,
      "Ġeffort": 3617,
      "Ġrather": 3618,
      "Ġpractice": 3619,
      "Ġexample": 3620,
      "ĠStates": 3621,
      "Ġheard": 3622,
      "Ġrequirements": 3623,
      "ĠRuss": 3624,
      "Ġcomb": 3625,
      "Ġstructure": 3626,
      "Ġgrammar": 3627,
      "Ġrecord": 3628,
      "ery": 3629,
      "Ġhol": 3630,
      "ĠHill": 3631,
      "ands": 3632,
      "ĠAllen": 3633,
      "Ġspokes": 3634,
      "!!!!": 3635,
      "Ġ================================": 3636,
      "odity": 3637,
      "Ġtype": 3638,
      "Ġlooks": 3639,
      "Ġaut": 3640,
      "link": 3641,
      "Ġcents": 3642,
      "edic": 3643,
      "3490": 3644,
      "eriv": 3645,
      "Ġapply": 3646,
      "Ġminutes": 3647,
      "Ġcharges": 3648,
      "ĠHarris": 3649,
      "ĠHope": 3650,
      "Ġsepar": 3651,
      "Ġmakes": 3652,
      "ocr": 3653,
      "Ġsing": 3654,
      "ĠStand": 3655,
      "Ġmarketing": 3656,
      "ĠIndust": 3657,
      "Ġreceiving": 3658,
      "Ġant": 3659,
      "ĠSome": 3660,
      "Ġlove": 3661,
      "ĠWhile": 3662,
      "Ġgain": 3663,
      "ds": 3664,
      "cel": 3665,
      "ĠDeal": 3666,
      "ĠAP": 3667,
      "ĠMS": 3668,
      "ĠLouis": 3669,
      "AAE": 3670,
      "Ġanswer": 3671,
      "ĠAC": 3672,
      "inn": 3673,
      "Ġ________________________________________________": 3674,
      "Ġseems": 3675,
      "Ġamong": 3676,
      "ĠHave": 3677,
      "Ġ853": 3678,
      "ireless": 3679,
      "folio": 3680,
      "ĠTrade": 3681,
      "Ġwr": 3682,
      "outs": 3683,
      "ĠHall": 3684,
      "Ġli": 3685,
      "Ġselling": 3686,
      "Ġpartnership": 3687,
      "68": 3688,
      "sid": 3689,
      "ĠUN": 3690,
      "Ġsen": 3691,
      "ĠJennifer": 3692,
      "ze": 3693,
      "wide": 3694,
      "ato": 3695,
      "Ġaffiliates": 3696,
      "Ġcoher": 3697,
      "ĠGar": 3698,
      "de": 3699,
      "Ġappreciate": 3700,
      "Ġwind": 3701,
      "ĠJos": 3702,
      "Ġbuilding": 3703,
      "Ġeconomic": 3704,
      "???": 3705,
      "Ġprovides": 3706,
      ")'\"": 3707,
      "OP": 3708,
      "Ġregister": 3709,
      "atic": 3710,
      "Ġmeans": 3711,
      "GE": 3712,
      "ancy": 3713,
      "ĠOf": 3714,
      "ĠHa": 3715,
      "ampa": 3716,
      "CB": 3717,
      "ici": 3718,
      "wards": 3719,
      "Ġpers": 3720,
      "Ġacross": 3721,
      "uing": 3722,
      "ached": 3723,
      "Ġlawy": 3724,
      "IH": 3725,
      "ently": 3726,
      "ĠDist": 3727,
      "IAI": 3728,
      "ĠSim": 3729,
      "Ġcommunication": 3730,
      "ĠMex": 3731,
      "Ġrevised": 3732,
      "Ġincludes": 3733,
      "ĠPr": 3734,
      "hl": 3735,
      "Ġconsist": 3736,
      "ville": 3737,
      "udge": 3738,
      "Ġemer": 3739,
      "ĠUp": 3740,
      "Ġassoci": 3741,
      "Ġsecurity": 3742,
      "oen": 3743,
      "Ġpresentation": 3744,
      "Ġpm": 3745,
      "hol": 3746,
      "ĠSchool": 3747,
      "Ġrelations": 3748,
      "Ġsect": 3749,
      "Ġaffiliate": 3750,
      "ĠRog": 3751,
      "ĠToday": 3752,
      "ĠStock": 3753,
      "Ġcir": 3754,
      "69": 3755,
      "Ġfavor": 3756,
      "andy": 3757,
      "Ġsimpl": 3758,
      "Ġtrip": 3759,
      "aged": 3760,
      "ocity": 3761,
      "Ġeverything": 3762,
      "Ġphysical": 3763,
      "Ġtim": 3764,
      "Ġspot": 3765,
      "ĠKing": 3766,
      "bell": 3767,
      "ĠShar": 3768,
      "Ġimprove": 3769,
      "Ġoperation": 3770,
      "ĠResearch": 3771,
      "iquid": 3772,
      "Ġemployee": 3773,
      "tty": 3774,
      "su": 3775,
      "ĠGood": 3776,
      "most": 3777,
      "Ġ40": 3778,
      "emin": 3779,
      "Ġperm": 3780,
      "IAL": 3781,
      "Ġfriends": 3782,
      "Ġconvers": 3783,
      "Ġadvert": 3784,
      "200": 3785,
      "ita": 3786,
      "Ġtrack": 3787,
      "apiro": 3788,
      "Ġfunct": 3789,
      "ĠEll": 3790,
      "QAB": 3791,
      "ĠAlan": 3792,
      "ĠEmploy": 3793,
      "JM": 3794,
      "SP": 3795,
      "AX": 3796,
      "eng": 3797,
      "NAL": 3798,
      "Ġprojects": 3799,
      "Ġur": 3800,
      "ministr": 3801,
      "MM": 3802,
      "ĠAG": 3803,
      "oura": 3804,
      "Ġbud": 3805,
      "ĠSU": 3806,
      "know": 3807,
      "Ġadvise": 3808,
      "ĠRTO": 3809,
      "Ġprint": 3810,
      "ello": 3811,
      "attle": 3812,
      "aving": 3813,
      "Mail": 3814,
      "sto": 3815,
      "Ġcounterparty": 3816,
      "ĠOther": 3817,
      "Ġmeg": 3818,
      "ĠAff": 3819,
      "ĠDiego": 3820,
      "ĠCash": 3821,
      "ĠSection": 3822,
      "Ġdefin": 3823,
      "Ġconditions": 3824,
      "aced": 3825,
      "olumbia": 3826,
      "ĠSar": 3827,
      "Ġreach": 3828,
      "ĠReli": 3829,
      "urt": 3830,
      "Ġprivate": 3831,
      "inental": 3832,
      "UL": 3833,
      "ĠGl": 3834,
      "Ġstory": 3835,
      "ariff": 3836,
      "ĠRepublic": 3837,
      "MEX": 3838,
      "ero": 3839,
      "Ġareas": 3840,
      "Ġentire": 3841,
      "bit": 3842,
      "Ġapprox": 3843,
      "ĠBeck": 3844,
      "killing": 3845,
      "ĠRy": 3846,
      "ĠLee": 3847,
      "ida": 3848,
      "Ġla": 3849,
      "Ġclient": 3850,
      "atts": 3851,
      "atures": 3852,
      "Ġrunning": 3853,
      "ĠRegul": 3854,
      "Ġvarious": 3855,
      "Ġinjury": 3856,
      "ĠDuke": 3857,
      "Ġpricing": 3858,
      "outh": 3859,
      "Ġstarted": 3860,
      "Ġopportunities": 3861,
      "ĠTer": 3862,
      "Ġenron": 3863,
      "ĠOnline": 3864,
      "ocation": 3865,
      "wood": 3866,
      "=-=-=-=-": 3867,
      "inson": 3868,
      "Ġhappy": 3869,
      "dict": 3870,
      "Ġregulatory": 3871,
      "Ġtyp": 3872,
      "Ġaltern": 3873,
      "ĠCam": 3874,
      "Ġmind": 3875,
      "Ġdiss": 3876,
      "Ġnothing": 3877,
      "Ġenc": 3878,
      "345": 3879,
      "Ġenforce": 3880,
      "ĠEngine": 3881,
      "Ġlunch": 3882,
      "QU": 3883,
      "Ġstop": 3884,
      "Ġability": 3885,
      "ĠFut": 3886,
      "ding": 3887,
      "PO": 3888,
      "ĠGov": 3889,
      "EM": 3890,
      "ĠPortland": 3891,
      "umb": 3892,
      "Ġapplication": 3893,
      "ĠMet": 3894,
      "ĠSynchron": 3895,
      "oid": 3896,
      "ĠMatt": 3897,
      "ĠSpecial": 3898,
      "comp": 3899,
      "Ġobtain": 3900,
      "Ġequity": 3901,
      "ĠPay": 3902,
      "Ġwater": 3903,
      "ĠArea": 3904,
      "Ġpolitical": 3905,
      "Ġhealth": 3906,
      "Rewrite": 3907,
      "Ġdollars": 3908,
      "Ġwhole": 3909,
      "eto": 3910,
      "Ġgl": 3911,
      "arr": 3912,
      "Ġsimilar": 3913,
      "Ġseem": 3914,
      "ĠExecutive": 3915,
      "ethod": 3916,
      "ĠDemocr": 3917,
      "ĠSynchronizing": 3918,
      "pped": 3919,
      "ĠRec": 3920,
      "ĠProf": 3921,
      "conn": 3922,
      "ĠCustomer": 3923,
      "ĠEnter": 3924,
      "standing": 3925,
      "Ġexecuted": 3926,
      "bm": 3927,
      "ĠLu": 3928,
      "icro": 3929,
      "ledge": 3930,
      "acc": 3931,
      "Ġworked": 3932,
      "ayer": 3933,
      "Ġactually": 3934,
      "vis": 3935,
      "Ġfine": 3936,
      "ĠDear": 3937,
      "ridge": 3938,
      "http": 3939,
      "ĠAccount": 3940,
      "ols": 3941,
      "rel": 3942,
      "65": 3943,
      "ormal": 3944,
      "Com": 3945,
      "ster": 3946,
      "Ġcomputer": 3947,
      "ma": 3948,
      "87": 3949,
      "Ġmess": 3950,
      "esa": 3951,
      "ĠSer": 3952,
      "OG": 3953,
      "ette": 3954,
      "olog": 3955,
      "Ġwritten": 3956,
      "chnolog": 3957,
      "Ġcell": 3958,
      "Ġchild": 3959,
      "days": 3960,
      "Ġver": 3961,
      "chnical": 3962,
      "IE": 3963,
      "Ġeas": 3964,
      "Ġcontained": 3965,
      "Ġevents": 3966,
      "Ġactivities": 3967,
      "Ġtouch": 3968,
      "Ġlight": 3969,
      "ĠTotal": 3970,
      "inding": 3971,
      "ĠWil": 3972,
      "Ġvolumes": 3973,
      "ĠLim": 3974,
      "Ġplanning": 3975,
      "unity": 3976,
      "Ġposted": 3977,
      "ĠMur": 3978,
      "ĠHel": 3979,
      "ĠFolder": 3980,
      "iana": 3981,
      "Ġoperating": 3982,
      "Ġfig": 3983,
      "duced": 3984,
      "enda": 3985,
      "olf": 3986,
      "Ġseek": 3987,
      "ĠSheila": 3988,
      "aphrase": 3989,
      "Ġmentioned": 3990,
      "ĠAccess": 3991,
      "ĠLau": 3992,
      "Ġmegaw": 3993,
      "ĠBer": 3994,
      "sheet": 3995,
      "ĠPost": 3996,
      "use": 3997,
      "ILL": 3998,
      "ĠVice": 3999,
      "EE": 4000,
      "ootball": 4001,
      "oA": 4002,
      "ĠNEWS": 4003,
      "ĠNYMEX": 4004,
      "ĠLynn": 4005,
      "Ġtarg": 4006,
      "itation": 4007,
      "ĠTracy": 4008,
      "ĠImport": 4009,
      "allas": 4010,
      "ĠAppro": 4011,
      "ĠCr": 4012,
      "ĠSince": 4013,
      "enced": 4014,
      "ĠShapiro": 4015,
      "ĠHour": 4016,
      "Ġmeetings": 4017,
      "OTES": 4018,
      "Ġpretty": 4019,
      "Ġprefer": 4020,
      "ĠSkilling": 4021,
      "ĠOp": 4022,
      "plor": 4023,
      "ĠAndrew": 4024,
      "):": 4025,
      "ership": 4026,
      "Ġmill": 4027,
      "known": 4028,
      "ĠGold": 4029,
      "Ġdetermine": 4030,
      "ĠPage": 4031,
      "ĠStephen": 4032,
      "uters": 4033,
      "84": 4034,
      "Ġadministration": 4035,
      "Ġassum": 4036,
      "Ġcho": 4037,
      ",''": 4038,
      "iet": 4039,
      "Ġroll": 4040,
      "ona": 4041,
      "Ġfill": 4042,
      "ĠList": 4043,
      "DS": 4044,
      "IV": 4045,
      "Ġfacilities": 4046,
      "la": 4047,
      "ipment": 4048,
      "Ġtalking": 4049,
      "If": 4050,
      "Ġsending": 4051,
      "rast": 4052,
      "aint": 4053,
      "Ġsection": 4054,
      "New": 4055,
      "ĠKate": 4056,
      "ruce": 4057,
      "ĠMorgan": 4058,
      "Ġpres": 4059,
      "Ġregards": 4060,
      "CA": 4061,
      "ĠSchedule": 4062,
      "ABgA": 4063,
      "ĠKean": 4064,
      "nd": 4065,
      "itchen": 4066,
      "gAiAC": 4067,
      "Ġarrange": 4068,
      "oman": 4069,
      "ĠBry": 4070,
      "Ġproced": 4071,
      "bs": 4072,
      "ension": 4073,
      "oyd": 4074,
      "Ġclean": 4075,
      "ĠSell": 4076,
      "ĠOP": 4077,
      "Ġissued": 4078,
      "Ġcross": 4079,
      "Ġprofess": 4080,
      "ĠDevelopment": 4081,
      "FL": 4082,
      "Ġahead": 4083,
      "Ġbenefit": 4084,
      "ams": 4085,
      "ĠDetail": 4086,
      "ĠEmail": 4087,
      "merce": 4088,
      "85": 4089,
      "ĠLeslie": 4090,
      "You": 4091,
      "cle": 4092,
      "Ġfell": 4093,
      "ĠMarkets": 4094,
      "Im": 4095,
      "Ġappears": 4096,
      "Ġsimply": 4097,
      "ci": 4098,
      "ĠPlan": 4099,
      "Ġsaf": 4100,
      "fo": 4101,
      "osition": 4102,
      "ĠMara": 4103,
      "TION": 4104,
      "Ġsubsc": 4105,
      "Ġcollect": 4106,
      "NY": 4107,
      "ĠEuropean": 4108,
      "tu": 4109,
      "Ġfinanc": 4110,
      "Ġlines": 4111,
      "oh": 4112,
      "encies": 4113,
      "emb": 4114,
      "ĠGerald": 4115,
      "ĠAD": 4116,
      "Ġpop": 4117,
      "ĠReal": 4118,
      "Ġorganization": 4119,
      "Ġbrief": 4120,
      "ĠSuite": 4121,
      "ĠHotel": 4122,
      "ĠGE": 4123,
      "As": 4124,
      "Ġcoherence": 4125,
      "ĠLam": 4126,
      "Ġfiles": 4127,
      "ĠHarry": 4128,
      "ECB": 4129,
      "ĠCentral": 4130,
      "Ġbooks": 4131,
      "Ġhaven": 4132,
      "????????????????????????????????": 4133,
      "CEAN": 4134,
      "64": 4135,
      "Ġsubsid": 4136,
      "ĠPan": 4137,
      "umber": 4138,
      "ĠJean": 4139,
      "iring": 4140,
      "Ġmaintain": 4141,
      "wIO": 4142,
      "Ġofficial": 4143,
      "ĠGray": 4144,
      "dy": 4145,
      "ĠKelly": 4146,
      "CEANOTES": 4147,
      "Ġmom": 4148,
      "Ġsettlement": 4149,
      "ises": 4150,
      "ĠAlex": 4151,
      "ivision": 4152,
      "mond": 4153,
      "Ġsources": 4154,
      "xls": 4155,
      "ĠRay": 4156,
      "Ġtransfer": 4157,
      "Ġsaying": 4158,
      "Ġbott": 4159,
      "oor": 4160,
      "Ġstandard": 4161,
      "ORT": 4162,
      "Ġworks": 4163,
      "ĠUnder": 4164,
      "Ġwonder": 4165,
      "stant": 4166,
      "ubs": 4167,
      "Ġeconomy": 4168,
      "ouston": 4169,
      "Ġ...": 4170,
      "ĠUK": 4171,
      "gI": 4172,
      "---------": 4173,
      "anta": 4174,
      "Ġstatement": 4175,
      "Ġproviding": 4176,
      "Ġquickly": 4177,
      "sch": 4178,
      "sm": 4179,
      "ĠJason": 4180,
      "FO": 4181,
      "Ġdirector": 4182,
      "iser": 4183,
      "Ġcalls": 4184,
      "Ġunable": 4185,
      "uf": 4186,
      "Ġassistance": 4187,
      "aries": 4188,
      "andid": 4189,
      "ĠClear": 4190,
      "otes": 4191,
      "arily": 4192,
      "Ġstrategy": 4193,
      "ague": 4194,
      "dd": 4195,
      "Ġsenior": 4196,
      "Ġdownload": 4197,
      "Ġspoke": 4198,
      "Ġunits": 4199,
      "Ġalthough": 4200,
      "Ġbeginning": 4201,
      "ĠJon": 4202,
      "MTP": 4203,
      "ZW": 4204,
      "Ġple": 4205,
      "Ġindex": 4206,
      "Ġword": 4207,
      "Ġprim": 4208,
      "Ġton": 4209,
      "ĠMa": 4210,
      "Ġsav": 4211,
      "house": 4212,
      "Ġprepared": 4213,
      "active": 4214,
      "night": 4215,
      "Ġshipp": 4216,
      "Ġfloor": 4217,
      "Ġabs": 4218,
      "ĠProgram": 4219,
      "erivatives": 4220,
      "ĠLove": 4221,
      "IMCEANOTES": 4222,
      "Ġtrader": 4223,
      "ĠDr": 4224,
      "Ġlevels": 4225,
      "Energy": 4226,
      "msn": 4227,
      "ĠLast": 4228,
      "elines": 4229,
      "EG": 4230,
      "Ġexplain": 4231,
      "Ġsave": 4232,
      "ĠSol": 4233,
      "Ġderegulation": 4234,
      "td": 4235,
      "Cl": 4236,
      "UST": 4237,
      "Ġmethod": 4238,
      "abor": 4239,
      "ĠDallas": 4240,
      "Ġpublished": 4241,
      "ĠRest": 4242,
      "Ġvacation": 4243,
      "Ġsubmitted": 4244,
      "Ġchairman": 4245,
      "Ah": 4246,
      "ĠTHIS": 4247,
      "Ġusers": 4248,
      "Ġnet": 4249,
      "Ġexchange": 4250,
      "Ġsheet": 4251,
      "ĠPurch": 4252,
      "igations": 4253,
      "rich": 4254,
      "van": 4255,
      "Ġindicated": 4256,
      "ĠDebra": 4257,
      "He": 4258,
      "Ġsus": 4259,
      "ĠNG": 4260,
      "Ġcreated": 4261,
      "ĠCharles": 4262,
      "ĠUtilities": 4263,
      "dle": 4264,
      "Ġraised": 4265,
      "rictions": 4266,
      "wAAAAAAAA": 4267,
      "ĠOrder": 4268,
      "dG": 4269,
      "Ġrelationship": 4270,
      "61": 4271,
      "Ġupdated": 4272,
      "icles": 4273,
      "za": 4274,
      "CAL": 4275,
      "lies": 4276,
      "inger": 4277,
      "ĠAc": 4278,
      "Ġmoving": 4279,
      "Ġopt": 4280,
      "Ġdam": 4281,
      "~*": 4282,
      "Ġok": 4283,
      "Ġobject": 4284,
      "ĠCould": 4285,
      "market": 4286,
      "ĠBook": 4287,
      "Re": 4288,
      "Ġdecided": 4289,
      "Ġful": 4290,
      "pecial": 4291,
      "ĠMembers": 4292,
      "itting": 4293,
      "Ġgovernor": 4294,
      "Ġreached": 4295,
      "Ġfin": 4296,
      "br": 4297,
      "Ġglobal": 4298,
      "Ġtable": 4299,
      "Ġhit": 4300,
      "oted": 4301,
      "Qg": 4302,
      "Ġelectronic": 4303,
      "roy": 4304,
      "ĠSenior": 4305,
      "Ġstocks": 4306,
      "ogn": 4307,
      "ĠWind": 4308,
      "ĠSarah": 4309,
      "ĠStandard": 4310,
      "Ġwor": 4311,
      "ĠCheck": 4312,
      "ĠWell": 4313,
      "ĠMarc": 4314,
      "ĠDef": 4315,
      "Ġbehalf": 4316,
      "Par": 4317,
      "ĠNO": 4318,
      "see": 4319,
      "BB": 4320,
      "Ġsup": 4321,
      "94": 4322,
      "orland": 4323,
      "pite": 4324,
      "ĠSally": 4325,
      "ĠTele": 4326,
      "Ġbalance": 4327,
      "Ġadjust": 4328,
      "ĠJoseph": 4329,
      "ĠRegulatory": 4330,
      "Ġincreased": 4331,
      "Ġdates": 4332,
      "ĠCongress": 4333,
      "Ġisn": 4334,
      "Ġdeb": 4335,
      "agraph": 4336,
      "ĠTop": 4337,
      "Ġprogress": 4338,
      "Ġdead": 4339,
      "Ġmarg": 4340,
      "ĠFar": 4341,
      "ĠFlor": 4342,
      "Ġliquid": 4343,
      "olly": 4344,
      "ĠPipeline": 4345,
      "ĠPass": 4346,
      "ĠTechnology": 4347,
      "Ġaware": 4348,
      "AAC": 4349,
      "Ġnation": 4350,
      "ĠPL": 4351,
      "keley": 4352,
      "ĠPress": 4353,
      "Ġsuggested": 4354,
      "ĠFYI": 4355,
      "box": 4356,
      "Ġoccurred": 4357,
      "burg": 4358,
      "Ġnames": 4359,
      "ips": 4360,
      "ele": 4361,
      "ĠPresto": 4362,
      "INT": 4363,
      "Ġalmost": 4364,
      "poses": 4365,
      "Ġpush": 4366,
      "ĠOver": 4367,
      "serv": 4368,
      "Ġrevenue": 4369,
      "Ġsavings": 4370,
      "ĠCounty": 4371,
      "Ġdev": 4372,
      "ZX": 4373,
      "Ġindependent": 4374,
      "osing": 4375,
      "Ġdiscussions": 4376,
      "ideo": 4377,
      "ran": 4378,
      "Ġpull": 4379,
      "Ġdelay": 4380,
      "entures": 4381,
      "ĠClark": 4382,
      "Ġeasy": 4383,
      "Ġer": 4384,
      "Ġface": 4385,
      "INE": 4386,
      "_.": 4387,
      "wC": 4388,
      "ĠVer": 4389,
      "Ġagency": 4390,
      "82": 4391,
      "ĠMer": 4392,
      "gency": 4393,
      "Ġparticipate": 4394,
      "Ġtickets": 4395,
      "Ġstudy": 4396,
      "Ġcomes": 4397,
      "ASE": 4398,
      "ĠBruce": 4399,
      "Ġchallen": 4400,
      "Ġannounce": 4401,
      "ĠSanders": 4402,
      "ĠTel": 4403,
      "ĠWestern": 4404,
      "Ġsimpler": 4405,
      "ĠJournal": 4406,
      "Ġadvance": 4407,
      "Ġunc": 4408,
      "Ġste": 4409,
      "Ġgrid": 4410,
      "ung": 4411,
      "ĠChange": 4412,
      "ĠFore": 4413,
      "Ġadvant": 4414,
      "incer": 4415,
      "Ġplus": 4416,
      "ĠBay": 4417,
      "Ġtown": 4418,
      "ĠRel": 4419,
      "endar": 4420,
      "Ġremember": 4421,
      "Ġconfirmation": 4422,
      "mm": 4423,
      "ĠFri": 4424,
      "Ġbit": 4425,
      "Ġren": 4426,
      "ĠFac": 4427,
      "ĠAlias": 4428,
      "Ġacceptance": 4429,
      "Ġgave": 4430,
      "Ġdinner": 4431,
      "ĠHome": 4432,
      "ĠFinance": 4433,
      "Ġconduct": 4434,
      "ished": 4435,
      "ĠFre": 4436,
      "IME": 4437,
      "ĠStaff": 4438,
      "Ġpurs": 4439,
      "Ġwatch": 4440,
      "ĠMillion": 4441,
      "ĠSEC": 4442,
      "ĠBu": 4443,
      "Ġsingle": 4444,
      "Ġbar": 4445,
      "ĠChief": 4446,
      "prove": 4447,
      "Jeff": 4448,
      "ĠHis": 4449,
      "Ġanalysts": 4450,
      "ĠMarie": 4451,
      "Ġrefund": 4452,
      "Ġactual": 4453,
      "Ġfunding": 4454,
      "ĠKimber": 4455,
      "ĠForney": 4456,
      "ĠHer": 4457,
      "Ġpip": 4458,
      "ape": 4459,
      "ĠKitchen": 4460,
      "Ġremov": 4461,
      "udy": 4462,
      "ĠContact": 4463,
      "Ġunderstanding": 4464,
      "ateral": 4465,
      "VER": 4466,
      "Ġcounsel": 4467,
      "arts": 4468,
      "Ġreduce": 4469,
      "Ġknown": 4470,
      "ructuring": 4471,
      "Ġhop": 4472,
      "74": 4473,
      "retary": 4474,
      "Ġstrateg": 4475,
      "inder": 4476,
      "ipt": 4477,
      "opt": 4478,
      "ĠMexico": 4479,
      "ELL": 4480,
      "63": 4481,
      "ĠLook": 4482,
      "Ġpayments": 4483,
      "Ġactivity": 4484,
      "issions": 4485,
      "FAA": 4486,
      "duce": 4487,
      "Ġresources": 4488,
      "Ġwilling": 4489,
      "Ġleading": 4490,
      "ming": 4491,
      "Ġthoughts": 4492,
      "Ġvalid": 4493,
      "___": 4494,
      "Ġdescrib": 4495,
      "incerely": 4496,
      "ĠSchw": 4497,
      "ĠEconom": 4498,
      "Ġ500": 4499,
      "ĠPAR": 4500,
      "ĠFast": 4501,
      "Ġconsidered": 4502,
      "Ġforecast": 4503,
      "ĠArn": 4504,
      "oston": 4505,
      "::": 4506,
      "Ġbase": 4507,
      "Ġlocated": 4508,
      "duction": 4509,
      "Ġapproximately": 4510,
      "haps": 4511,
      "BC": 4512,
      "Ġcalcul": 4513,
      "Online": 4514,
      "irt": 4515,
      "ĠFutures": 4516,
      "ps": 4517,
      "irement": 4518,
      "ĠQuest": 4519,
      "ĠConfirm": 4520,
      "West": 4521,
      "Ġnor": 4522,
      "western": 4523,
      "Ġnational": 4524,
      "Ġautom": 4525,
      "ander": 4526,
      "oung": 4527,
      "Ġfacility": 4528,
      "Ġwords": 4529,
      "gas": 4530,
      "ĠAR": 4531,
      "ĠAtt": 4532,
      "Ġunless": 4533,
      "ĠRos": 4534,
      "ument": 4535,
      "Ġsat": 4536,
      "Ġpan": 4537,
      "ĠMicro": 4538,
      "Ġbudget": 4539,
      "83": 4540,
      "ĠFe": 4541,
      "ĠCra": 4542,
      "ĠBur": 4543,
      "Ġcompl": 4544,
      "ĠFw": 4545,
      "Ġcontent": 4546,
      "ĠAnderson": 4547,
      "pecially": 4548,
      "plorer": 4549,
      "Ġauthority": 4550,
      "Hi": 4551,
      "ĠSecurities": 4552,
      "ĠMember": 4553,
      "bec": 4554,
      "ĠAnalyst": 4555,
      "Ġinput": 4556,
      "ĠIndian": 4557,
      "ĠDesk": 4558,
      "ĠHPL": 4559,
      "ĠGra": 4560,
      "Ġsuppli": 4561,
      "ĠTor": 4562,
      "Ġconstruction": 4563,
      "Ġmistakes": 4564,
      "used": 4565,
      "Ġwording": 4566,
      "ipal": 4567,
      "Ġtem": 4568,
      "ĠCamp": 4569,
      "Ġexecutives": 4570,
      "ii": 4571,
      "Ġlive": 4572,
      "essaging": 4573,
      "Ġintro": 4574,
      "ĠConn": 4575,
      "Ġreleased": 4576,
      "Ġarticle": 4577,
      "ĠBack": 4578,
      "uclear": 4579,
      "EAA": 4580,
      "Ġbinding": 4581,
      "Ġmoved": 4582,
      "Ġspeak": 4583,
      "212": 4584,
      "Ġexpand": 4585,
      "oub": 4586,
      "ĠRES": 4587,
      "ĠSpec": 4588,
      "elt": 4589,
      "ilt": 4590,
      "ĠReliant": 4591,
      "PG": 4592,
      "Ġpurposes": 4593,
      "Ġencoura": 4594,
      "73": 4595,
      "Ġcaus": 4596,
      "uled": 4597,
      "ĠTre": 4598,
      "todays": 4599,
      "ampaign": 4600,
      "issa": 4601,
      "Ġ60": 4602,
      "todayshead": 4603,
      "imate": 4604,
      "Ġthinking": 4605,
      "ĠDaniel": 4606,
      "Ġland": 4607,
      "uge": 4608,
      "Ġlimit": 4609,
      "There": 4610,
      "ĠTam": 4611,
      "ĠSD": 4612,
      "~*~*": 4613,
      "ĠRon": 4614,
      "ĠLaura": 4615,
      "itigation": 4616,
      "ewh": 4617,
      "YW": 4618,
      "ĠMAR": 4619,
      "ĠAccording": 4620,
      "ilit": 4621,
      "sequ": 4622,
      "Ne": 4623,
      "Ġaddressed": 4624,
      "ĠAndersen": 4625,
      "Lenhart": 4626,
      "Attached": 4627,
      "Ġsummary": 4628,
      "ĠHy": 4629,
      "ORE": 4630,
      "loom": 4631,
      "Sim": 4632,
      "Ġlegislation": 4633,
      "Ġtariff": 4634,
      "Ġinteg": 4635,
      "Ġforce": 4636,
      "order": 4637,
      "Ġlic": 4638,
      "index": 4639,
      "TA": 4640,
      "Ġfee": 4641,
      "elcome": 4642,
      "olks": 4643,
      "soft": 4644,
      "Ug": 4645,
      "ĠVi": 4646,
      "Ġpreviously": 4647,
      "ĠUs": 4648,
      "ĠCarl": 4649,
      "ĠBow": 4650,
      "ĠGod": 4651,
      "Ġcoal": 4652,
      "Ġcoordin": 4653,
      "Ġattention": 4654,
      "Ġmatch": 4655,
      "ĠHunter": 4656,
      "Ġpurchases": 4657,
      "Ġrequests": 4658,
      "ĠED": 4659,
      "ĠTV": 4660,
      "opping": 4661,
      "chnologies": 4662,
      "Ġconven": 4663,
      "ĠWat": 4664,
      "utch": 4665,
      "Ġholiday": 4666,
      "otion": 4667,
      "Ġdrop": 4668,
      "Ġexcept": 4669,
      "uction": 4670,
      "Ġregion": 4671,
      "pg": 4672,
      "Paraphrase": 4673,
      "kg": 4674,
      "Ġcandid": 4675,
      "ste": 4676,
      "Ġhereto": 4677,
      "Ġbegan": 4678,
      "++++++++": 4679,
      "Ġinstead": 4680,
      "ĠOffic": 4681,
      "ydro": 4682,
      "Ġsession": 4683,
      "ĠAffairs": 4684,
      "bro": 4685,
      "rice": 4686,
      "CL": 4687,
      "cey": 4688,
      "ables": 4689,
      "Ġofficer": 4690,
      "Ġgrammaticality": 4691,
      "Ġled": 4692,
      "Ġsolution": 4693,
      "cks": 4694,
      "kA": 4695,
      "yle": 4696,
      "ĠOK": 4697,
      "MCD": 4698,
      "ids": 4699,
      "unk": 4700,
      "rated": 4701,
      "cA": 4702,
      "Ġnormal": 4703,
      "Ġrelied": 4704,
      "ĠJac": 4705,
      "Ġallowed": 4706,
      "Ġoffered": 4707,
      "Ġblackouts": 4708,
      "Ġattachment": 4709,
      "Ġsecurities": 4710,
      "Ġspokesman": 4711,
      "unt": 4712,
      "key": 4713,
      "aut": 4714,
      "Ġassociated": 4715,
      "Ġbus": 4716,
      "ĠKimberly": 4717,
      "gen": 4718,
      "Ġmar": 4719,
      "Ġrange": 4720,
      "Ġtalked": 4721,
      "uk": 4722,
      "Ġserious": 4723,
      "TM": 4724,
      "Ġavoid": 4725,
      "Ġprofits": 4726,
      "ĠPriv": 4727,
      "adian": 4728,
      "Ġdisp": 4729,
      "Ġgrad": 4730,
      "pson": 4731,
      "ĠYear": 4732,
      "QC": 4733,
      "anges": 4734,
      "Ġcommit": 4735,
      "Ġ646": 4736,
      "Ġdelivered": 4737,
      "ĠReceived": 4738,
      "Ġlocation": 4739,
      "Ġrating": 4740,
      "ĠUSA": 4741,
      "iated": 4742,
      "ĠAustin": 4743,
      "Ġwalk": 4744,
      "ichard": 4745,
      "Ġbroker": 4746,
      "Ġwait": 4747,
      "ĠWin": 4748,
      "ĠBrent": 4749,
      "Ġmemo": 4750,
      "itute": 4751,
      "Ġnewsletter": 4752,
      "hes": 4753,
      "pine": 4754,
      "ĠRichardson": 4755,
      "ror": 4756,
      "indy": 4757,
      "Ġinternal": 4758,
      "Ġoften": 4759,
      "Ġreference": 4760,
      "cell": 4761,
      "ĠCPUC": 4762,
      "Ġwriting": 4763,
      "ĠJackson": 4764,
      "ĠEX": 4765,
      "AAg": 4766,
      "Ġhed": 4767,
      "ĠClair": 4768,
      "ĠAlthough": 4769,
      "ado": 4770,
      "Ġfront": 4771,
      "arks": 4772,
      "Ġlack": 4773,
      "ray": 4774,
      "ĠAssociation": 4775,
      "Ġsubsidi": 4776,
      "uman": 4777,
      "ĠReview": 4778,
      "selves": 4779,
      "Ġtermin": 4780,
      "ĠEar": 4781,
      "?\"": 4782,
      "ĠRate": 4783,
      "Ġprotect": 4784,
      "ira": 4785,
      "93": 4786,
      "Ġmillions": 4787,
      "Ġbonds": 4788,
      "ĠFL": 4789,
      "Ġwrong": 4790,
      "BD": 4791,
      "ĠBo": 4792,
      "Ġgoes": 4793,
      "======": 4794,
      "Ġspace": 4795,
      "DOC": 4796,
      "Ġfair": 4797,
      "ĠCost": 4798,
      "itle": 4799,
      "Ġrout": 4800,
      "Ġannual": 4801,
      "ĠUpdate": 4802,
      "Ġfees": 4803,
      "Ġmultip": 4804,
      "Ġinternational": 4805,
      "Ġgets": 4806,
      "ĠSystems": 4807,
      "Ġwrite": 4808,
      "ĠWould": 4809,
      "IGH": 4810,
      "ĠJulie": 4811,
      "aW": 4812,
      "rote": 4813,
      "OWER": 4814,
      "Ġentities": 4815,
      "ĠFred": 4816,
      "Ġenforceable": 4817,
      "Bl": 4818,
      "asons": 4819,
      "Ġcolle": 4820,
      "Ġgames": 4821,
      "ĠCL": 4822,
      ".-": 4823,
      "ĠSett": 4824,
      "Ġ''": 4825,
      "ĠGovernment": 4826,
      "FYI": 4827,
      "ĠPetro": 4828,
      "Ġcompetitive": 4829,
      "IAIgAiAC": 4830,
      "EF": 4831,
      "ĠPolicy": 4832,
      "holders": 4833,
      "Ġcert": 4834,
      "ura": 4835,
      "Ġappoint": 4836,
      "Ġreporting": 4837,
      "Ġequipment": 4838,
      "Ġshows": 4839,
      "72": 4840,
      "Ġpros": 4841,
      "Ġtakes": 4842,
      "ĠSupport": 4843,
      "Ġregulators": 4844,
      "ĠData": 4845,
      "ĠDab": 4846,
      "Ġasking": 4847,
      "ĠBarb": 4848,
      "ĠFlorida": 4849,
      "ĠFINAL": 4850,
      "ĠWater": 4851,
      "ervation": 4852,
      "Ġassume": 4853,
      "QAK": 4854,
      "Ġpackage": 4855,
      "ĠVisit": 4856,
      "Ġespecially": 4857,
      "ĠEnglish": 4858,
      "UA": 4859,
      "ĠBel": 4860,
      "AND": 4861,
      "ĠFROM": 4862,
      "Ġsize": 4863,
      "Ġseparate": 4864,
      "\")": 4865,
      "Ġcompetition": 4866,
      "ĠHub": 4867,
      "bn": 4868,
      "ĠPalmer": 4869,
      "ĠSincerely": 4870,
      "Ġ***": 4871,
      "_._.": 4872,
      "ĠRoberts": 4873,
      "vin": 4874,
      "ĠEdit": 4875,
      "Ġfirms": 4876,
      "Improve": 4877,
      "Ġcard": 4878,
      "lan": 4879,
      "ĠRem": 4880,
      "ĠLenhart": 4881,
      "Ġ($": 4882,
      "62": 4883,
      "esk": 4884,
      "sey": 4885,
      "Ġsource": 4886,
      "Ġdrive": 4887,
      "Ġtelephone": 4888,
      "ĠSal": 4889,
      "Ġmed": 4890,
      "ĠTake": 4891,
      "Ġresponsibility": 4892,
      "Ġvs": 4893,
      "Ġmonitor": 4894,
      "mas": 4895,
      "ĠSue": 4896,
      "Ġresume": 4897,
      "ĠDabhol": 4898,
      "ĠTwo": 4899,
      "orter": 4900,
      "ĠWH": 4901,
      "Ġfast": 4902,
      "Ġvoice": 4903,
      "Ġmonthly": 4904,
      "Ġmax": 4905,
      "ĠCher": 4906,
      "ĠBass": 4907,
      "Ġquality": 4908,
      "UMB": 4909,
      "trip": 4910,
      "AAAAA": 4911,
      "Ġrecogn": 4912,
      "Ġfutures": 4913,
      "iance": 4914,
      "zz": 4915,
      "ĠLetter": 4916,
      "AQIG": 4917,
      "Ġ(\"": 4918,
      "Ġapplicable": 4919,
      "omen": 4920,
      "Ġsaw": 4921,
      "place": 4922,
      "ĠBoston": 4923,
      "Ġprovider": 4924,
      "Simpl": 4925,
      "Ġaffect": 4926,
      "SMTP": 4927,
      "Ġrenew": 4928,
      "enses": 4929,
      "ĠAddit": 4930,
      "anne": 4931,
      "ĠEvery": 4932,
      "ĠUBS": 4933,
      "ilton": 4934,
      "ĠBraz": 4935,
      "Ġwrote": 4936,
      "ĠWal": 4937,
      "Ġretain": 4938,
      "travel": 4939,
      "Ġmanager": 4940,
      "Ġschedules": 4941,
      "light": 4942,
      "oppel": 4943,
      "emec": 4944,
      "Ġmyself": 4945,
      "URE": 4946,
      "ĠShould": 4947,
      "ĠCorporate": 4948,
      "ĠNotice": 4949,
      "Ġestoppel": 4950,
      "ĠJay": 4951,
      "ĠAdd": 4952,
      "Ġentered": 4953,
      "Ġadvantage": 4954,
      "Ecom": 4955,
      "egas": 4956,
      "Ġsense": 4957,
      "Ġregular": 4958,
      "Ġclaims": 4959,
      "ĠUtility": 4960,
      "Ġguess": 4961,
      "ERV": 4962,
      "Ġkn": 4963,
      "ĠMany": 4964,
      "Ġorders": 4965,
      "Ġtherefore": 4966,
      "ĠME": 4967,
      "_____": 4968,
      "anya": 4969,
      "Ġmanage": 4970,
      "fort": 4971,
      "messaging": 4972,
      "kw": 4973,
      "Ġsector": 4974,
      "Ġinvestigation": 4975,
      "Ġinstall": 4976,
      "Ġparticipants": 4977,
      "more": 4978,
      "Ġideas": 4979,
      "iner": 4980,
      "ĠGovernor": 4981,
      "Ġwest": 4982,
      "Ġpeak": 4983,
      "Ġmerger": 4984,
      "Ġtarget": 4985,
      "prise": 4986,
      "ĠNorthwest": 4987,
      "Ġherein": 4988,
      "ĠMoore": 4989,
      "Ġfully": 4990,
      "wa": 4991,
      "leen": 4992,
      "Ġconfirmed": 4993,
      "Ġengine": 4994,
      "fect": 4995,
      "onus": 4996,
      "ĠShel": 4997,
      "ĠDer": 4998,
      "Ġcode": 4999,
      "ĠSorry": 5000,
      "Ġreb": 5001,
      "ena": 5002,
      "Ġconversation": 5003,
      "Ġcontinued": 5004,
      "Ġinstruct": 5005,
      "ĠOnce": 5006,
      "Ġbottom": 5007,
      "Ġvote": 5008,
      "Ġreserve": 5009,
      "ORK": 5010,
      "irley": 5011,
      "obile": 5012,
      "neth": 5013,
      "Ġevening": 5014,
      "usion": 5015,
      "Ġnice": 5016,
      "Ġexact": 5017,
      "Ġbenefits": 5018,
      "ĠMah": 5019,
      "etting": 5020,
      "ANT": 5021,
      "ĠBroad": 5022,
      "rix": 5023,
      "Ġpurpose": 5024,
      "Gas": 5025,
      "Ġpat": 5026,
      "administration": 5027,
      "istics": 5028,
      "ĠDatabase": 5029,
      "ots": 5030,
      "Dear": 5031,
      "ĠDick": 5032,
      "Ġdiscount": 5033,
      "Ġpict": 5034,
      "ĠGi": 5035,
      "cs": 5036,
      "Ġnearly": 5037,
      "clusive": 5038,
      "Ġretirement": 5039,
      "Ġfailed": 5040,
      "ĠRock": 5041,
      "actions": 5042,
      "Ġsomet": 5043,
      "ĠCOL": 5044,
      "Ġtechnical": 5045,
      "71": 5046,
      "Ġtrue": 5047,
      "rea": 5048,
      "Ġball": 5049,
      "ĠSat": 5050,
      "chie": 5051,
      "wD": 5052,
      "ĠEqu": 5053,
      "ĠLtd": 5054,
      "Ġcritical": 5055,
      "Ġsearch": 5056,
      "Ġcommodity": 5057,
      "Ġmiles": 5058,
      "Ġhistory": 5059,
      "Ġcatch": 5060,
      "opher": 5061,
      "ĠECT": 5062,
      "PORT": 5063,
      "Ahead": 5064,
      "Ġve": 5065,
      "ĠDonna": 5066,
      "Ġslow": 5067,
      "ĠEnronOnline": 5068,
      "ĠJose": 5069,
      "Ġlosses": 5070,
      "OK": 5071,
      "Ġweekly": 5072,
      "Ġneg": 5073,
      "Ġtw": 5074,
      "Ġcontains": 5075,
      "Ġuser": 5076,
      "pective": 5077,
      "Ġopinion": 5078,
      "Ġitself": 5079,
      "ĠCalif": 5080,
      "Ġquite": 5081,
      "Ġid": 5082,
      "ĠOutlook": 5083,
      "Ġrat": 5084,
      "ĠImportance": 5085,
      "ĠTransaction": 5086,
      "ĠOption": 5087,
      "ĠContent": 5088,
      "ivity": 5089,
      "ĠBig": 5090,
      "embly": 5091,
      "Ġshut": 5092,
      "Ġstatements": 5093,
      "QD": 5094,
      "astern": 5095,
      "mar": 5096,
      "ĠTE": 5097,
      "ĠSale": 5098,
      "ennis": 5099,
      "Ġchoice": 5100,
      "Ġremove": 5101,
      "Ġattempting": 5102,
      "usic": 5103,
      "ĠWay": 5104,
      "Ġpressure": 5105,
      "Ġprovisions": 5106,
      "onnell": 5107,
      "ĠProv": 5108,
      "anced": 5109,
      "riz": 5110,
      "igence": 5111,
      "ĠRound": 5112,
      "cher": 5113,
      "rain": 5114,
      "ĠSign": 5115,
      "ament": 5116,
      "Ġprevent": 5117,
      "ĠCONF": 5118,
      "continental": 5119,
      ".....": 5120,
      "Ġleaving": 5121,
      "atters": 5122,
      "oring": 5123,
      "ĠVentures": 5124,
      "Ġreviewed": 5125,
      "ĠOperations": 5126,
      "ole": 5127,
      "pay": 5128,
      "ario": 5129,
      "Ġconflic": 5130,
      "Ġcounterparties": 5131,
      "ĠLA": 5132,
      "ĠOriginal": 5133,
      "Ġfinancing": 5134,
      "ae": 5135,
      "Ġforeign": 5136,
      ".''": 5137,
      "Ġserve": 5138,
      "ĠDWR": 5139,
      "Ġextra": 5140,
      "Ġbiggest": 5141,
      "Ġprograms": 5142,
      "iere": 5143,
      "ĠUT": 5144,
      "ankman": 5145,
      "Ġconcerned": 5146,
      "Ġoffering": 5147,
      "ĠPatrick": 5148,
      "KET": 5149,
      "ĠHR": 5150,
      "bie": 5151,
      "Ġthreat": 5152,
      "ĠTax": 5153,
      "Ġagenda": 5154,
      "Ġprofessional": 5155,
      "Ġvice": 5156,
      "OB": 5157,
      "Ġplayer": 5158,
      "rastructure": 5159,
      "ĠPurchase": 5160,
      "ĠDun": 5161,
      "Ġformat": 5162,
      "ĠDid": 5163,
      "ĠElectricity": 5164,
      "empra": 5165,
      "Ġthous": 5166,
      "rett": 5167,
      "Ġgiving": 5168,
      "ECH": 5169,
      "ĠNE": 5170,
      "ĠAndy": 5171,
      "ĠChristi": 5172,
      "ĠDrew": 5173,
      ".'": 5174,
      "istration": 5175,
      "overy": 5176,
      "ĠAtl": 5177,
      "Ġ35": 5178,
      "YAG": 5179,
      "Ġexerc": 5180,
      "han": 5181,
      "Ġstated": 5182,
      "ĠParticip": 5183,
      "Ġcases": 5184,
      "ĠNote": 5185,
      "ĠColl": 5186,
      "Ġincreasing": 5187,
      "Ġchar": 5188,
      "Ġcommunications": 5189,
      "Ġmaster": 5190,
      "Ġaccounts": 5191,
      "Ġreplace": 5192,
      "cluding": 5193,
      "ĠDeli": 5194,
      "ĠKathy": 5195,
      "Ġenvironmental": 5196,
      "ountain": 5197,
      "Ġexam": 5198,
      "Ġremains": 5199,
      "Ġcontinues": 5200,
      "sA": 5201,
      "ichael": 5202,
      "Thanks": 5203,
      "Ġplanned": 5204,
      "Ġfolks": 5205,
      "illing": 5206,
      "avorato": 5207,
      "Ġassess": 5208,
      "ĠTanya": 5209,
      "Ġdirectors": 5210,
      "Ġmaybe": 5211,
      "Ġche": 5212,
      "ĠEff": 5213,
      "Unknown": 5214,
      "Ġ\\": 5215,
      "Ġcommon": 5216,
      "Ġbehind": 5217,
      "ĠEnt": 5218,
      "Ġap": 5219,
      "ĠYoung": 5220,
      "Ġ90": 5221,
      "Ġfares": 5222,
      "Ġmeter": 5223,
      "Ġrecords": 5224,
      "ĠSoCal": 5225,
      "ĠSever": 5226,
      "ĠCle": 5227,
      "ecution": 5228,
      "Ġcomplex": 5229,
      "Ġspend": 5230,
      "me": 5231,
      "Ġstuff": 5232,
      "AgYA": 5233,
      "Ġhuge": 5234,
      "Ġsubscription": 5235,
      "Ġbo": 5236,
      "ĠSCE": 5237,
      "ĠVenture": 5238,
      "Ġblock": 5239,
      "Ġjoint": 5240,
      "Ġpartnerships": 5241,
      "Ed": 5242,
      "ĠNumber": 5243,
      "ĠEvent": 5244,
      "apt": 5245,
      "DAY": 5246,
      "California": 5247,
      "TIVE": 5248,
      "Ġfixed": 5249,
      "Ġ201": 5250,
      "ĠDetails": 5251,
      "Ġsuppliers": 5252,
      "Ġtraining": 5253,
      "Ġtonight": 5254,
      "ĠCindy": 5255,
      "ĠReuters": 5256,
      "cil": 5257,
      "ailey": 5258,
      "Ġportfolio": 5259,
      "Ġdepartment": 5260,
      "ba": 5261,
      "body": 5262,
      "Ġeval": 5263,
      "ique": 5264,
      "ĠCheryl": 5265,
      "\",": 5266,
      "emination": 5267,
      "BNA": 5268,
      "Ġreserved": 5269,
      "ĠMicrosoft": 5270,
      "ĠChron": 5271,
      "eman": 5272,
      "ĠRussell": 5273,
      "ĠMonth": 5274,
      "Ġapplications": 5275,
      "ws": 5276,
      "going": 5277,
      "Ġwaiting": 5278,
      "nel": 5279,
      "ĠLimited": 5280,
      "END": 5281,
      "ĠMcM": 5282,
      "ĠMail": 5283,
      "92": 5284,
      "anner": 5285,
      "ĠHen": 5286,
      "ĠVegas": 5287,
      "Ġyourself": 5288,
      "ĠNancy": 5289,
      "Ġexpressed": 5290,
      "Ġnotes": 5291,
      "Ġmoment": 5292,
      "ĠPJM": 5293,
      "Ġ???": 5294,
      "ĠUR": 5295,
      "GS": 5296,
      "YX": 5297,
      "Ġremaining": 5298,
      "KT": 5299,
      "cription": 5300,
      "ĠArnold": 5301,
      "81": 5302,
      "Ġhost": 5303,
      "corp": 5304,
      "Ġpassword": 5305,
      "bi": 5306,
      "ĠNic": 5307,
      "Ġnoted": 5308,
      "Ġestablish": 5309,
      "fut": 5310,
      "ĠRandy": 5311,
      "ainey": 5312,
      "Ġtreat": 5313,
      "NE": 5314,
      "Ġcampaign": 5315,
      "Ġmeasure": 5316,
      "Ġavailability": 5317,
      "nett": 5318,
      "ĠIndex": 5319,
      "ĠEM": 5320,
      "ocal": 5321,
      "kl": 5322,
      "ulated": 5323,
      "**/": 5324,
      "ĠStanley": 5325,
      "Dec": 5326,
      "cp": 5327,
      "Ġwinter": 5328,
      "ufact": 5329,
      "ĠEven": 5330,
      "Ġinvestig": 5331,
      "ĠCAR": 5332,
      "ALL": 5333,
      "ĠVP": 5334,
      "ĠYOUR": 5335,
      "ĠParty": 5336,
      "tenance": 5337,
      "rand": 5338,
      "isition": 5339,
      "ĠBas": 5340,
      "Ġ1998": 5341,
      "Ġincome": 5342,
      "Ġinvestor": 5343,
      "atever": 5344,
      "Ġtre": 5345,
      "ĠSales": 5346,
      "ĠDian": 5347,
      "ĠCanadian": 5348,
      "Ġcalling": 5349,
      "Ġteams": 5350,
      "Ġidentify": 5351,
      "ĠRogers": 5352,
      "ops": 5353,
      "No": 5354,
      "ĠHart": 5355,
      "ĠScheduling": 5356,
      "Ġ800": 5357,
      "Ġcause": 5358,
      "--------------": 5359,
      "ĠLavorato": 5360,
      "From": 5361,
      "ĠSac": 5362,
      "ĠLegisl": 5363,
      "aska": 5364,
      "aton": 5365,
      "Ġdro": 5366,
      "ĠDis": 5367,
      "Ġbrow": 5368,
      "Ġexposure": 5369,
      "ĠDE": 5370,
      "Ġconsumer": 5371,
      "UB": 5372,
      "ĠSym": 5373,
      "ĠTher": 5374,
      "Ġclar": 5375,
      "Ġprem": 5376,
      "set": 5377,
      "Ġ----": 5378,
      "Ġserved": 5379,
      "erman": 5380,
      "Ġoutstanding": 5381,
      "ĠRiver": 5382,
      "ĠNeed": 5383,
      "ites": 5384,
      "Ġtransportation": 5385,
      "Ġrule": 5386,
      "ano": 5387,
      "todaysheadlines": 5388,
      "Ġstake": 5389,
      "Ġknowledge": 5390,
      "Ġachie": 5391,
      "ĠAnnoun": 5392,
      "cal": 5393,
      "dl": 5394,
      "sr": 5395,
      "anch": 5396,
      "reme": 5397,
      "Ġconsistent": 5398,
      "101": 5399,
      "ĠWireless": 5400,
      "ĠJanet": 5401,
      "Ġbought": 5402,
      "Ġthank": 5403,
      "ĠMSN": 5404,
      "ĠSave": 5405,
      "athan": 5406,
      "ailable": 5407,
      "Ġcaps": 5408,
      "Ġitem": 5409,
      "Ġthroughout": 5410,
      "Ġdefault": 5411,
      "Ġspent": 5412,
      "Ġprepare": 5413,
      "ĠDelainey": 5414,
      "Ġhotel": 5415,
      "All": 5416,
      "ĠSa": 5417,
      "lements": 5418,
      "ĠKenneth": 5419,
      "Ġpaying": 5420,
      "Ġplayers": 5421,
      "GV": 5422,
      "OF": 5423,
      "GM": 5424,
      "Ġmedia": 5425,
      "ĠNorthern": 5426,
      "Ġpurchased": 5427,
      "Ġparagraph": 5428,
      "OUR": 5429,
      "ĠVari": 5430,
      "ĠWho": 5431,
      "ĠTransmission": 5432,
      "Ġpartner": 5433,
      "Ġ---": 5434,
      "lingiere": 5435,
      "Ġraise": 5436,
      "Ġchildren": 5437,
      "MBtu": 5438,
      "ĠTerry": 5439,
      "Ġhandle": 5440,
      "Ġstudents": 5441,
      "ĠSH": 5442,
      "Ġpassed": 5443,
      "ĠApplic": 5444,
      "olid": 5445,
      "ĠGuarant": 5446,
      "ĠAirlines": 5447,
      "ĠALL": 5448,
      "Ġturb": 5449,
      "Ġdom": 5450,
      "Ġrecru": 5451,
      "Ġticket": 5452,
      "aces": 5453,
      "ĠDisc": 5454,
      "ĠChristopher": 5455,
      "ĠSports": 5456,
      "Ġcenter": 5457,
      "Ġdeveloped": 5458,
      "Ġlett": 5459,
      "Ġgre": 5460,
      "bna": 5461,
      "ĠPOWER": 5462,
      "Ġmen": 5463,
      "ĠAssembly": 5464,
      "Ġalternative": 5465,
      "Ġowned": 5466,
      "ĠDistrict": 5467,
      "don": 5468,
      "Ġovers": 5469,
      "cing": 5470,
      "nsf": 5471,
      "uate": 5472,
      "Ph": 5473,
      "Port": 5474,
      "Ġsubscrib": 5475,
      "Ġspending": 5476,
      "lied": 5477,
      "ĠDC": 5478,
      "ĠShirley": 5479,
      "mann": 5480,
      "Ġbox": 5481,
      "room": 5482,
      "tha": 5483,
      "Ġdecide": 5484,
      "ĠOffer": 5485,
      "ĠDown": 5486,
      "ĠEmployee": 5487,
      "ulf": 5488,
      "AO": 5489,
      "ME": 5490,
      "auer": 5491,
      "####": 5492,
      "Ġventure": 5493,
      "olumn": 5494,
      "Ġdissemination": 5495,
      "Ġeduc": 5496,
      "fl": 5497,
      "ĠCounterpart": 5498,
      "iso": 5499,
      "ĠPH": 5500,
      "ĠAmy": 5501,
      "ĠPO": 5502,
      "ĠTony": 5503,
      "Ġinsurance": 5504,
      "ux": 5505,
      "ĠIns": 5506,
      "ansion": 5507,
      "Ġnotified": 5508,
      "Ġlawyer": 5509,
      "Ġreasons": 5510,
      "Ġcommunity": 5511,
      "Ġnuclear": 5512,
      "equ": 5513,
      "Simplify": 5514,
      "By": 5515,
      "AAo": 5516,
      "ng": 5517,
      "Ġ]": 5518,
      "Ġindividuals": 5519,
      "Ġwide": 5520,
      "ĠClearing": 5521,
      "ĠArt": 5522,
      ":\\": 5523,
      "ĠEv": 5524,
      "ĠLog": 5525,
      "ĠAssist": 5526,
      "ĠPrices": 5527,
      "||||||||": 5528,
      "Ġbrought": 5529,
      "balance": 5530,
      "NT": 5531,
      "ĠBren": 5532,
      "istic": 5533,
      "Ġsuccessful": 5534,
      "flo": 5535,
      "chant": 5536,
      "ADE": 5537,
      "========================": 5538,
      "raz": 5539,
      "atively": 5540,
      "Ġgift": 5541,
      "ĠKeith": 5542,
      "och": 5543,
      "Ġseeing": 5544,
      "**/**/": 5545,
      "Ġgoal": 5546,
      "ociate": 5547,
      "II": 5548,
      "avid": 5549,
      "nov": 5550,
      "Ġderivatives": 5551,
      "iant": 5552,
      "Ġheav": 5553,
      "Ġrequires": 5554,
      "Ġfre": 5555,
      "ened": 5556,
      "Ġviol": 5557,
      "Ġincorpor": 5558,
      "Ġanticip": 5559,
      "Ġforwarded": 5560,
      "Ġprinc": 5561,
      "ĠBarbara": 5562,
      "ĠCalpine": 5563,
      "ĠMost": 5564,
      "Ġcountries": 5565,
      "ĠMelissa": 5566,
      "becca": 5567,
      "ĠWhere": 5568,
      "Sc": 5569,
      "Ġtru": 5570,
      "Ġsolutions": 5571,
      "igital": 5572,
      "Ġuns": 5573,
      "tr": 5574,
      "Ġprocedures": 5575,
      "rie": 5576,
      "ITH": 5577,
      "ĠThen": 5578,
      "cill": 5579,
      "ĠField": 5580,
      "ĠUnion": 5581,
      "ĠRead": 5582,
      "EI": 5583,
      "ening": 5584,
      "ĠLand": 5585,
      "Ġsubstant": 5586,
      "ĠResp": 5587,
      "agers": 5588,
      "ĠCounsel": 5589,
      "ADY": 5590,
      "Ġasset": 5591,
      "mento": 5592,
      "pubs": 5593,
      "ĠDO": 5594,
      "igan": 5595,
      "Ġ---------": 5596,
      "Ġstandards": 5597,
      "wAI": 5598,
      "Ġ================================================================": 5599,
      "pper": 5600,
      "ĠBrazil": 5601,
      "atform": 5602,
      "ĠShankman": 5603,
      "Ġthru": 5604,
      "Ġalloc": 5605,
      "Ġadvice": 5606,
      "Ġmessages": 5607,
      "IES": 5608,
      "ĠBrit": 5609,
      "quir": 5610,
      "ĠRa": 5611,
      "ĠKrist": 5612,
      "ĠPosition": 5613,
      "resh": 5614,
      "ASH": 5615,
      "Ġregistered": 5616,
      "UD": 5617,
      "arm": 5618,
      "ecause": 5619,
      "-+": 5620,
      "antity": 5621,
      "Ġspreadsheet": 5622,
      "300": 5623,
      "600": 5624,
      "Ġtried": 5625,
      "Ġways": 5626,
      "ĠPenn": 5627,
      "ĠBR": 5628,
      "Ġden": 5629,
      "ĠStacey": 5630,
      "ĠEdward": 5631,
      "lying": 5632,
      "ibly": 5633,
      "grade": 5634,
      "ĠHern": 5635,
      "aught": 5636,
      "rs": 5637,
      "Ġfinance": 5638,
      "ĠHourAhead": 5639,
      "Ġinvestments": 5640,
      "ĠHelp": 5641,
      "ĠVan": 5642,
      "ĠPST": 5643,
      "BSCR": 5644,
      "Ġpool": 5645,
      "obby": 5646,
      "Ġplaying": 5647,
      "Ġobligations": 5648,
      "Ġrank": 5649,
      "Ġoverall": 5650,
      "oud": 5651,
      "ially": 5652,
      "ĠPlant": 5653,
      "0500": 5654,
      "fool": 5655,
      "250": 5656,
      "ĠDenver": 5657,
      "Ġspons": 5658,
      "ians": 5659,
      "Ġtaxes": 5660,
      "ĠCurrent": 5661,
      "ĠHaw": 5662,
      "Ġseries": 5663,
      "Ġess": 5664,
      "Ġskill": 5665,
      "Ġbrowser": 5666,
      "ĠColumbia": 5667,
      "Ġbanks": 5668,
      "Ġwhose": 5669,
      "Ġextend": 5670,
      "ĠView": 5671,
      "Ġ75": 5672,
      "ĠOh": 5673,
      "ĠRebecca": 5674,
      "Ġfeature": 5675,
      "Ġtermination": 5676,
      "ĠPOV": 5677,
      "Ġwasn": 5678,
      "Ġorganiz": 5679,
      "Ġforms": 5680,
      "Ġ45": 5681,
      "ĠRev": 5682,
      "Ġdesigned": 5683,
      "loomberg": 5684,
      "ĠJacob": 5685,
      "hour": 5686,
      "oes": 5687,
      "home": 5688,
      "Ġpen": 5689,
      "IRE": 5690,
      "For": 5691,
      "Ġgrant": 5692,
      "ĠMax": 5693,
      "ĠPX": 5694,
      "posed": 5695,
      "pre": 5696,
      "Ġsurvey": 5697,
      "ĠNext": 5698,
      "ĠLead": 5699,
      "stein": 5700,
      "ye": 5701,
      "Ġpositive": 5702,
      "Ġdeclared": 5703,
      "Ġ36": 5704,
      "ĠProducts": 5705,
      "Ġdollar": 5706,
      "ural": 5707,
      "gent": 5708,
      "rant": 5709,
      "eder": 5710,
      "Ġremoved": 5711,
      "ĠAmanda": 5712,
      "atility": 5713,
      "Ġlooked": 5714,
      "Ġiniti": 5715,
      "Ġchoose": 5716,
      ")';": 5717,
      "auf": 5718,
      "Ġparticipation": 5719,
      "ramento": 5720,
      "awn": 5721,
      "eals": 5722,
      "Ġestimate": 5723,
      "Ġdeep": 5724,
      "Ġtesting": 5725,
      "Ġinterconn": 5726,
      "ĠEL": 5727,
      "ĠHold": 5728,
      "ĠNemec": 5729,
      "oder": 5730,
      "ĠSing": 5731,
      "ĠCT": 5732,
      "Ġcalendar": 5733,
      "ĠERC": 5734,
      "ĠImp": 5735,
      "phy": 5736,
      "ynth": 5737,
      "ĠLow": 5738,
      "Ġincreases": 5739,
      "ĠPerlingiere": 5740,
      "Ġproducers": 5741,
      "ĠAud": 5742,
      "gment": 5743,
      "Ġtraded": 5744,
      "ĠPlayer": 5745,
      "Mar": 5746,
      "Ġjudge": 5747,
      "Ġpet": 5748,
      "ĠBE": 5749,
      "ĠBradford": 5750,
      "WS": 5751,
      "Ġsites": 5752,
      "Ġsubmit": 5753,
      "atically": 5754,
      "ĠForm": 5755,
      "Ġcopying": 5756,
      "AAQ": 5757,
      "carr": 5758,
      "ĠDue": 5759,
      "ĠSl": 5760,
      "Ġadministr": 5761,
      "Write": 5762,
      "ĠPC": 5763,
      "kin": 5764,
      "Ġdecisions": 5765,
      "Ġsimple": 5766,
      "Ġhom": 5767,
      "isf": 5768,
      "ERGY": 5769,
      "ĠBlair": 5770,
      "Ġguarantee": 5771,
      "Ġ**": 5772,
      "ground": 5773,
      "HR": 5774,
      "ĠConfidential": 5775,
      "resp": 5776,
      "ĠVir": 5777,
      "Ġtoward": 5778,
      "ĠAf": 5779,
      "Ġsupplies": 5780,
      "ĠGil": 5781,
      "Ġneutral": 5782,
      "Ġbecame": 5783,
      "Ġopinions": 5784,
      "ĠTravelocity": 5785,
      "ĠCoast": 5786,
      "race": 5787,
      "ansas": 5788,
      "ivan": 5789,
      "ĠOak": 5790,
      "VP": 5791,
      "Ġthousands": 5792,
      "Ġreduced": 5793,
      "ĠLew": 5794,
      "makers": 5795,
      "agan": 5796,
      "Ġinternet": 5797,
      "ĠRoom": 5798,
      "Ġhelpful": 5799,
      "AgECB": 5800,
      "Ġinstit": 5801,
      "book": 5802,
      "ĠDaren": 5803,
      "Ġplayed": 5804,
      "Ġemergency": 5805,
      "carrfut": 5806,
      "ĠStatus": 5807,
      "Ġband": 5808,
      "Ġadvis": 5809,
      "Ġgir": 5810,
      "ĠTodd": 5811,
      "ĠSecurity": 5812,
      "ĠBryan": 5813,
      "Ġrisks": 5814,
      "Ġdoor": 5815,
      "Ġpanel": 5816,
      "FOR": 5817,
      "Ġproduce": 5818,
      "venues": 5819,
      "Ġdifference": 5820,
      "ĠIssue": 5821,
      "ĠChronicle": 5822,
      "Ġnom": 5823,
      "ĠFuel": 5824,
      "Ġactions": 5825,
      "men": 5826,
      "Ġgone": 5827,
      "ĠDescription": 5828,
      "ĠSacramento": 5829,
      "ception": 5830,
      "Ġkick": 5831,
      "Ġgreater": 5832,
      "Ġconcerning": 5833,
      "empor": 5834,
      "Ġseeking": 5835,
      "with": 5836,
      "ĠSager": 5837,
      "LEASE": 5838,
      "CP": 5839,
      "ĠOptions": 5840,
      "Ġaccur": 5841,
      "ĠMil": 5842,
      "pects": 5843,
      "ZSB": 5844,
      "ĠNewsw": 5845,
      "Ġow": 5846,
      "Ġaggress": 5847,
      "ASS": 5848,
      "ĠEBS": 5849,
      "DATE": 5850,
      "uris": 5851,
      "Ġswap": 5852,
      "AAP": 5853,
      "IRM": 5854,
      "Ġfigure": 5855,
      "ĠCut": 5856,
      "cfm": 5857,
      "ĠJerry": 5858,
      "Ġmailing": 5859,
      "DC": 5860,
      "DEC": 5861,
      "ĠACTIVE": 5862,
      "AV": 5863,
      "ĠCook": 5864,
      "edicke": 5865,
      "LP": 5866,
      "Ġopening": 5867,
      "Ġbuilt": 5868,
      "ears": 5869,
      "ĠSeattle": 5870,
      "Ġclients": 5871,
      "UM": 5872,
      "Berry": 5873,
      "oma": 5874,
      "ĠWholesale": 5875,
      "onst": 5876,
      "Ġgenerating": 5877,
      "Ġmag": 5878,
      "ĠCampbell": 5879,
      "ĠSW": 5880,
      "Ġinformed": 5881,
      "ĠSecretary": 5882,
      "mit": 5883,
      "mark": 5884,
      "Ġarbit": 5885,
      "ĠLynch": 5886,
      "ĠControl": 5887,
      "Ġexecution": 5888,
      "ĠLas": 5889,
      "ĠShort": 5890,
      "Ġfood": 5891,
      "ology": 5892,
      "Ġclosing": 5893,
      "Ġsusp": 5894,
      "will": 5895,
      "Ġmatters": 5896,
      "Ġconsidering": 5897,
      "Ġinterests": 5898,
      "ĠTransactions": 5899,
      "ĠET": 5900,
      "ĠHoward": 5901,
      "fortun": 5902,
      "Ġwhom": 5903,
      "ATIONS": 5904,
      "gers": 5905,
      "ACAI": 5906,
      "ĠIndependent": 5907,
      "ĠTransport": 5908,
      "ĠCR": 5909,
      "Ġparticularly": 5910,
      "Ġpoll": 5911,
      "Ġdeveloping": 5912,
      "Ġportion": 5913,
      "limin": 5914,
      "ĠNeal": 5915,
      "ĠLine": 5916,
      "ĠERCOT": 5917,
      "Ġdeg": 5918,
      "ipe": 5919,
      "Ġwouldn": 5920,
      "Ġreasonable": 5921,
      "91": 5922,
      "Ġdetected": 5923,
      "Ġgrowing": 5924,
      "Ġvers": 5925,
      "AVE": 5926,
      "ĠETS": 5927,
      "urer": 5928,
      "ĠExhib": 5929,
      "ĠCit": 5930,
      "ĠMal": 5931,
      "Ġworkers": 5932,
      "itors": 5933,
      "Ġsteps": 5934,
      "NP": 5935,
      "ka": 5936,
      "ĠCode": 5937,
      "estic": 5938,
      "ateg": 5939,
      "organ": 5940,
      "Ġdra": 5941,
      "arp": 5942,
      "cn": 5943,
      "ĠTherefore": 5944,
      "ĠWeather": 5945,
      "held": 5946,
      "Ġpark": 5947,
      "They": 5948,
      "stream": 5949,
      "Ġnegotiations": 5950,
      "Ġinteresting": 5951,
      "Ġsorry": 5952,
      "Ġreceipt": 5953,
      "aufman": 5954,
      "Ġdefense": 5955,
      "Ġ212": 5956,
      "ĠMarg": 5957,
      "Ġdetailed": 5958,
      "iling": 5959,
      "Ġhon": 5960,
      "ĠWhy": 5961,
      "Ġprovision": 5962,
      "Ġturned": 5963,
      "Ġconnection": 5964,
      "bor": 5965,
      "Ġ!": 5966,
      "Ġpath": 5967,
      "owers": 5968,
      "ĠBailey": 5969,
      "ĠAustral": 5970,
      "ĠCraig": 5971,
      "ĠDoc": 5972,
      "person": 5973,
      "Ġeasier": 5974,
      "Ġ33": 5975,
      "Pro": 5976,
      "ĠAOL": 5977,
      "tg": 5978,
      "400": 5979,
      "ĠPatt": 5980,
      "ora": 5981,
      "ĠBeth": 5982,
      "mitted": 5983,
      "eler": 5984,
      "ims": 5985,
      "ĠMD": 5986,
      "Ġexcess": 5987,
      "ĠMM": 5988,
      "ko": 5989,
      "Ġexpense": 5990,
      "where": 5991,
      "Ġalle": 5992,
      "ifications": 5993,
      "ĠReturn": 5994,
      "Ġprimary": 5995,
      "research": 5996,
      "Ġlawsu": 5997,
      "Ġmissed": 5998,
      "ĠWS": 5999,
      "ONE": 6000,
      "Ġactive": 6001,
      "Ġrepresentative": 6002,
      "ĠBorland": 6003,
      "Ġvideo": 6004,
      "Ġdespite": 6005,
      "invest": 6006,
      "thur": 6007,
      "alent": 6008,
      "ĠMain": 6009,
      "Ġscheduling": 6010,
      "rap": 6011,
      "Ġthemselves": 6012,
      "win": 6013,
      "etary": 6014,
      "ĠYes": 6015,
      "rees": 6016,
      "************************": 6017,
      "Ġspeed": 6018,
      "Ġapprove": 6019,
      "ĠAdams": 6020,
      "ĠGen": 6021,
      "ANgA": 6022,
      "Ad": 6023,
      "ĠFloor": 6024,
      "ĠConsum": 6025,
      "Ġinitialize": 6026,
      "Ġ388": 6027,
      "ĠAgree": 6028,
      "Ġdecline": 6029,
      "which": 6030,
      "ĠMESS": 6031,
      "pa": 6032,
      "Ġholding": 6033,
      "bed": 6034,
      "gm": 6035,
      "Ġrecover": 6036,
      "Ġ80": 6037,
      "ĠTed": 6038,
      "ĠMID": 6039,
      "Don": 6040,
      "ĠAssociates": 6041,
      "liminary": 6042,
      "Ġpending": 6043,
      "ĠMig": 6044,
      "ĠMiss": 6045,
      "Ġoffices": 6046,
      "annon": 6047,
      "Ġrose": 6048,
      "ullivan": 6049,
      "oto": 6050,
      "reh": 6051,
      "Ġcombined": 6052,
      "orton": 6053,
      "Ġrelief": 6054,
      "can": 6055,
      "anged": 6056,
      "Ġtransition": 6057,
      "atrix": 6058,
      "ĠMir": 6059,
      "ĠHE": 6060,
      "Ġshowing": 6061,
      "ionally": 6062,
      "ĠTranswestern": 6063,
      "ĠDi": 6064,
      "Here": 6065,
      "ichardson": 6066,
      "ĠElect": 6067,
      "iation": 6068,
      "Ġminimum": 6069,
      "while": 6070,
      "Ġcomfort": 6071,
      "Ġsomewh": 6072,
      "Ro": 6073,
      "Ġ281": 6074,
      "ĠURL": 6075,
      "ĠRobin": 6076,
      "ĠError": 6077,
      "Ġfire": 6078,
      "ĠFastow": 6079,
      "Power": 6080,
      "Ġcontinuing": 6081,
      "What": 6082,
      "cillary": 6083,
      "Ġawarded": 6084,
      "ĠDeals": 6085,
      "ews": 6086,
      "Ġdepend": 6087,
      "ocial": 6088,
      "AAM": 6089,
      "Ġindicate": 6090,
      "ores": 6091,
      "andra": 6092,
      "Ġmissing": 6093,
      "Ġdistributed": 6094,
      "ken": 6095,
      "AST": 6096,
      "Ġexperi": 6097,
      "Ġdocumentation": 6098,
      "ĠER": 6099,
      "Ġones": 6100,
      "free": 6101,
      "ĠMcK": 6102,
      "Ġbasic": 6103,
      "ĠValley": 6104,
      "Copyright": 6105,
      "ĠSouthwest": 6106,
      "Ġcarry": 6107,
      "ĠFall": 6108,
      "ĠHam": 6109,
      "ĠClass": 6110,
      "Ġrequirement": 6111,
      "AAAAAAAAAAAAAA": 6112,
      "PRC": 6113,
      "Ġimmediate": 6114,
      "Ġuncertain": 6115,
      "ĠRice": 6116,
      "Ġlimits": 6117,
      "Ġamounts": 6118,
      "ĠSit": 6119,
      "Ġdestroy": 6120,
      "ĠStrate": 6121,
      "FB": 6122,
      "Ġcompared": 6123,
      "Ġleaders": 6124,
      "Ġdirection": 6125,
      "Line": 6126,
      "ĠTick": 6127,
      "Ġutil": 6128,
      "Ġreturned": 6129,
      "ĠMaria": 6130,
      "ĠINTER": 6131,
      "col": 6132,
      "Kevin": 6133,
      "Ġinstructions": 6134,
      "urisdict": 6135,
      "DT": 6136,
      "olay": 6137,
      "ĠClub": 6138,
      "reng": 6139,
      "appy": 6140,
      "ĠSheraton": 6141,
      "Ġestimates": 6142,
      "Ġindustrial": 6143,
      "viously": 6144,
      "zen": 6145,
      "AAAB": 6146,
      "Ġdriv": 6147,
      "ĠVick": 6148,
      "elden": 6149,
      "Ġestablished": 6150,
      "ĠWilson": 6151,
      "ĠEngland": 6152,
      "Ġtemper": 6153,
      "ĠBern": 6154,
      "Ġcoach": 6155,
      "iled": 6156,
      "Ġdouble": 6157,
      "ĠDIS": 6158,
      "anna": 6159,
      "Ġtalks": 6160,
      "enders": 6161,
      "Ġkill": 6162,
      "ni": 6163,
      "ĠChap": 6164,
      "you": 6165,
      "point": 6166,
      "Ġmeant": 6167,
      "unct": 6168,
      "oph": 6169,
      "trad": 6170,
      "Ġcancel": 6171,
      "GF": 6172,
      "Ġadvertising": 6173,
      "ĠMORE": 6174,
      "ĠBeach": 6175,
      "rength": 6176,
      "Ġcharged": 6177,
      "Ġdated": 6178,
      "anny": 6179,
      "do": 6180,
      "uart": 6181,
      "Ġplaced": 6182,
      "Ġprotection": 6183,
      "ĠIndustry": 6184,
      "ĠHead": 6185,
      "lined": 6186,
      "berkeley": 6187,
      "irth": 6188,
      "Ġlives": 6189,
      "Ġmanaging": 6190,
      "ĠPGE": 6191,
      "Ġgives": 6192,
      "iced": 6193,
      "ĠBecause": 6194,
      "ĠAgain": 6195,
      "ĠEach": 6196,
      "Ġbusy": 6197,
      "ĠKaufman": 6198,
      "ĠCooper": 6199,
      "Ġtrust": 6200,
      "ĠHaedicke": 6201,
      "ĠSE": 6202,
      "Ġjobs": 6203,
      "Ġreject": 6204,
      "ĠSur": 6205,
      "rency": 6206,
      "How": 6207,
      "iter": 6208,
      "ĠSend": 6209,
      "ĠCapacity": 6210,
      "Ġfootball": 6211,
      "ĠFT": 6212,
      "Ġparent": 6213,
      "Ġbul": 6214,
      "Ġselected": 6215,
      "Ġprompt": 6216,
      "_____________": 6217,
      "eria": 6218,
      "ĠBY": 6219,
      "iciency": 6220,
      "Ġsuggestions": 6221,
      "Ġtypes": 6222,
      "ĠChristmas": 6223,
      "ĠDebbie": 6224,
      "%.": 6225,
      "ective": 6226,
      "Ġflight": 6227,
      "ĠMoran": 6228,
      "Ġhistor": 6229,
      "Ġtight": 6230,
      "................................": 6231,
      "ĠThompson": 6232,
      "business": 6233,
      "Ġacquisition": 6234,
      "ĠHod": 6235,
      "ANC": 6236,
      "ĠContracts": 6237,
      "Ġsort": 6238,
      "Ġbi": 6239,
      "ĠSuz": 6240,
      "ĠPeriod": 6241,
      "atherine": 6242,
      "Ġshown": 6243,
      "Ġhes": 6244,
      "ĠDennis": 6245,
      "ĠGreat": 6246,
      "ĠHard": 6247,
      "Ġplatform": 6248,
      "ĠINT": 6249,
      "My": 6250,
      "horn": 6251,
      "ĠMcN": 6252,
      "ynthia": 6253,
      "ĠRates": 6254,
      "ĠReserve": 6255,
      "Ġperspective": 6256,
      "ĠNW": 6257,
      "arently": 6258,
      "olution": 6259,
      "Ġsubscribe": 6260,
      "Ġten": 6261,
      "ĠWalk": 6262,
      "Ġarriv": 6263,
      "Ġmanufact": 6264,
      "ĠBoth": 6265,
      "Ġperhaps": 6266,
      "Ġ00": 6267,
      "Ġgather": 6268,
      "emy": 6269,
      "Ġsuit": 6270,
      "Ġmargin": 6271,
      "compl": 6272,
      "lyn": 6273,
      "ewart": 6274,
      "Market": 6275,
      "Ġdetermined": 6276,
      "Ġagencies": 6277,
      "Ġpasses": 6278,
      "ificate": 6279,
      "Ġhappened": 6280,
      "Ġ70": 6281,
      "ĠJane": 6282,
      "STON": 6283,
      "ĠLNG": 6284,
      "Ġroundtrip": 6285,
      "Ġfunction": 6286,
      "ĠSummary": 6287,
      "ĠSDG": 6288,
      "Ġ300": 6289,
      "ĠHeather": 6290,
      "ĠIssues": 6291,
      "ĠFollow": 6292,
      "Ġmegawatts": 6293,
      "ĠHenry": 6294,
      "ĠResource": 6295,
      "icies": 6296,
      "ĠMitch": 6297,
      "AAgCE": 6298,
      "But": 6299,
      "ĠDoes": 6300,
      "Ġaccepted": 6301,
      "Ġwhatever": 6302,
      "Ste": 6303,
      "Ġwelcome": 6304,
      "Ġcities": 6305,
      "-------------": 6306,
      "ĠRepublican": 6307,
      "chan": 6308,
      "ibb": 6309,
      "Ġdrink": 6310,
      "shore": 6311,
      "ARD": 6312,
      "Ġpossibility": 6313,
      "QAAAA": 6314,
      "ĠDivision": 6315,
      "ĠVolum": 6316,
      "ĠASAP": 6317,
      "LD": 6318,
      "Portland": 6319,
      "jones": 6320,
      "buy": 6321,
      "ACH": 6322,
      "Ġtrouble": 6323,
      "cia": 6324,
      "Ġsupposed": 6325,
      "ĠRoy": 6326,
      "ictor": 6327,
      "town": 6328,
      "idth": 6329,
      "ĠPoints": 6330,
      "ĠHo": 6331,
      "Ġstra": 6332,
      "ĠTenn": 6333,
      "AAAAAAAAAQ": 6334,
      "$$": 6335,
      "ĠGR": 6336,
      "Ġcertainly": 6337,
      "Ġconfidence": 6338,
      "Ġult": 6339,
      "ĠIM": 6340,
      "ACgA": 6341,
      "Ġextrem": 6342,
      "ĠRyan": 6343,
      "Ġallows": 6344,
      "ĠWatson": 6345,
      "beck": 6346,
      "Ġterror": 6347,
      "ADAg": 6348,
      "Ġfr": 6349,
      "ĠNFL": 6350,
      "ĠRelations": 6351,
      "Desk": 6352,
      "ĠStorage": 6353,
      "Ġconsideration": 6354,
      "Ġhurt": 6355,
      "Ġinvoice": 6356,
      "ĠBlue": 6357,
      "ordan": 6358,
      "ĠIII": 6359,
      "Ġsound": 6360,
      "Ġweak": 6361,
      "Ġinfrastructure": 6362,
      "Ġestimated": 6363,
      "ureau": 6364,
      "Ġassignment": 6365,
      "iber": 6366,
      "Ġimpl": 6367,
      "ĠCounterparty": 6368,
      "orado": 6369,
      "ĠTalk": 6370,
      "Ġseven": 6371,
      "Ġbear": 6372,
      "amin": 6373,
      "add": 6374,
      "Ġcontrols": 6375,
      "ĠSeries": 6376,
      "Ġ{": 6377,
      "Ġmis": 6378,
      "ĠFull": 6379,
      "ĠBell": 6380,
      "Ġcouldn": 6381,
      "Ġafford": 6382,
      "ĠMMBtu": 6383,
      "Ġclearly": 6384,
      "Jl": 6385,
      "Ġforced": 6386,
      "ĠBelden": 6387,
      "Ġcirc": 6388,
      "Ġadopt": 6389,
      "Ġsetting": 6390,
      "ĠRestrictions": 6391,
      "Ġtrial": 6392,
      "Ġsle": 6393,
      "mith": 6394,
      "ĠSav": 6395,
      "bo": 6396,
      "holder": 6397,
      "Ġcy": 6398,
      "Ġputting": 6399,
      "ĠSempra": 6400,
      "ĠProfess": 6401,
      "ĠStart": 6402,
      "Ġcoverage": 6403,
      "KS": 6404,
      "ignment": 6405,
      "leum": 6406,
      "Ġexpects": 6407,
      "iece": 6408,
      "AGES": 6409,
      "ocket": 6410,
      "Co": 6411,
      "real": 6412,
      "Ġrush": 6413,
      "Ġexpert": 6414,
      "Ġslight": 6415,
      "ĠSF": 6416,
      "Ġrevenues": 6417,
      "ĠRad": 6418,
      "ĠAgreements": 6419,
      "Ġhesit": 6420,
      "ĠAssistant": 6421,
      "ĠIll": 6422,
      "ĠCOMM": 6423,
      "Ġveh": 6424,
      "que": 6425,
      "Ġroad": 6426,
      "Ġcondition": 6427,
      "Mg": 6428,
      "ĠDale": 6429,
      "ĠDPC": 6430,
      "ĠGeneration": 6431,
      "IAIgAiACIAIgAiAC": 6432,
      "ĠNA": 6433,
      "ended": 6434,
      "Ġfeatures": 6435,
      "Ġcore": 6436,
      "Ġelimin": 6437,
      "ĠSelect": 6438,
      "Ġnegative": 6439,
      "ĠHug": 6440,
      "Ar": 6441,
      "sar": 6442,
      "Ġmegawatt": 6443,
      "BQAB": 6444,
      "Ġcurve": 6445,
      "Ġguid": 6446,
      "Ġbeg": 6447,
      "Ġattract": 6448,
      "ĠDelivery": 6449,
      "BSCRIB": 6450,
      "Ġ345": 6451,
      "ĠSecond": 6452,
      "ĠSchedules": 6453,
      "ĠIP": 6454,
      "Ġluck": 6455,
      "Ġtren": 6456,
      "arton": 6457,
      "Ġ44": 6458,
      "Ġdial": 6459,
      "Ġdepos": 6460,
      "Ġintend": 6461,
      "fortunately": 6462,
      "Ġapolog": 6463,
      "gE": 6464,
      "erous": 6465,
      "ĠCard": 6466,
      "Ġvalu": 6467,
      "Ġfinally": 6468,
      "Ġidentified": 6469,
      "ĠComments": 6470,
      "Ġuseful": 6471,
      "IGN": 6472,
      "Ġprofile": 6473,
      "ĠAssociated": 6474,
      "Ġlawyers": 6475,
      "ĠMs": 6476,
      "ibilities": 6477,
      "Ġusually": 6478,
      "ĠChair": 6479,
      "ĠJun": 6480,
      "ĠNon": 6481,
      "ĠStar": 6482,
      "ACT": 6483,
      "play": 6484,
      "Ġreliable": 6485,
      "ĠEst": 6486,
      "ĠOfficer": 6487,
      "arty": 6488,
      "Ġhighly": 6489,
      "ĠAmount": 6490,
      "ĠJer": 6491,
      "Start": 6492,
      "liance": 6493,
      "ĠOrange": 6494,
      "Ġobligation": 6495,
      "onz": 6496,
      "ĠAnne": 6497,
      "athy": 6498,
      "Ġcompon": 6499,
      "offs": 6500,
      "ograph": 6501,
      "azon": 6502,
      "month": 6503,
      "width": 6504,
      "atal": 6505,
      "ĠLO": 6506,
      "ĠAmericans": 6507,
      "reek": 6508,
      "Ġswitch": 6509,
      "ĠRen": 6510,
      "Ġtour": 6511,
      "ĠCouncil": 6512,
      "ĠHand": 6513,
      "Ġsolid": 6514,
      "Ġground": 6515,
      "Ġadvised": 6516,
      "ĠFour": 6517,
      "Ġexceed": 6518,
      "oices": 6519,
      "arch": 6520,
      "Ġfight": 6521,
      "omb": 6522,
      "ĠConc": 6523,
      "olt": 6524,
      "ĠType": 6525,
      "Aw": 6526,
      "Ġsecure": 6527,
      "ength": 6528,
      "ĠPreferred": 6529,
      "Ġcarri": 6530,
      "bank": 6531,
      "Ġowners": 6532,
      "ĠAnth": 6533,
      "ĠDraft": 6534,
      "Ġstat": 6535,
      "Ġstrength": 6536,
      "Ġfourth": 6537,
      "ĠCell": 6538,
      "ĠFurther": 6539,
      "ĠConsult": 6540,
      "Ġsolely": 6541,
      "aur": 6542,
      "ĠChristian": 6543,
      "ĠMKT": 6544,
      "ender": 6545,
      "ĠHeard": 6546,
      "pc": 6547,
      "Ġcool": 6548,
      "ĠTreas": 6549,
      "aco": 6550,
      "Ġregional": 6551,
      "info": 6552,
      "ĠMA": 6553,
      "ĠTD": 6554,
      "communications": 6555,
      "Ġpipelines": 6556,
      "ĠReports": 6557,
      "And": 6558,
      "erts": 6559,
      "ĠCynthia": 6560,
      "Subject": 6561,
      "yes": 6562,
      "ERA": 6563,
      "MW": 6564,
      "ointment": 6565,
      "ĠDemocrats": 6566,
      "dis": 6567,
      "Ġ32": 6568,
      "ĠEnvironment": 6569,
      "Ġbal": 6570,
      "ĠHay": 6571,
      "hman": 6572,
      "Ġ1996": 6573,
      "Ġmaintenance": 6574,
      "FF": 6575,
      "Ġlaunch": 6576,
      "ĠBuild": 6577,
      "ĠAuthor": 6578,
      "ĠMAN": 6579,
      "Ġviews": 6580,
      "Con": 6581,
      "ĠShelley": 6582,
      "cknow": 6583,
      "othy": 6584,
      "Ġexactly": 6585,
      "rizona": 6586,
      "respond": 6587,
      "Ġ202": 6588,
      "ĠHilton": 6589,
      "Can": 6590,
      "imony": 6591,
      "ĠMurphy": 6592,
      "NC": 6593,
      "ĠLOG": 6594,
      "ĠBarry": 6595,
      "ĠJuan": 6596,
      "ĠRS": 6597,
      "ĠBP": 6598,
      "ĠWILL": 6599,
      "ACAA": 6600,
      "Ġ37": 6601,
      "Ġaddres": 6602,
      "Ġskills": 6603,
      "ĠNC": 6604,
      "rehensive": 6605,
      "UMBIA": 6606,
      "ĠAndrea": 6607,
      "ĠHey": 6608,
      "ĠAdministration": 6609,
      "daq": 6610,
      "yond": 6611,
      "Ġbonus": 6612,
      "ĠAdministr": 6613,
      "asdaq": 6614,
      "ript": 6615,
      "iami": 6616,
      "150": 6617,
      "Ġstru": 6618,
      "ĠIND": 6619,
      "Mark": 6620,
      "Ġconcept": 6621,
      "closed": 6622,
      "wg": 6623,
      "Ġpractices": 6624,
      "Ġsatisf": 6625,
      "edy": 6626,
      "aby": 6627,
      "Ġtough": 6628,
      "ĠInv": 6629,
      "giving": 6630,
      "ĠHays": 6631,
      "Ġdeclined": 6632,
      "isher": 6633,
      "Ġdraw": 6634,
      "ĠMod": 6635,
      "ama": 6636,
      "ĠAnalysis": 6637,
      "ĠAZ": 6638,
      "Ġextremely": 6639,
      "Ġconservation": 6640,
      "ĠOFF": 6641,
      "ĠMont": 6642,
      "ĠLewis": 6643,
      "undred": 6644,
      "ĠFarmer": 6645,
      "Ġcaused": 6646,
      "Ġcru": 6647,
      "ĠIsland": 6648,
      "AhAA": 6649,
      "Ġspl": 6650,
      "AZMB": 6651,
      "ĠWard": 6652,
      "Ġaren": 6653,
      "abilities": 6654,
      "ĠConst": 6655,
      "Ġmaterials": 6656,
      "ĠVirgin": 6657,
      "415": 6658,
      "Ġlose": 6659,
      "Ġresolve": 6660,
      "Ġsubsidiary": 6661,
      "IX": 6662,
      "bon": 6663,
      "ĠEastern": 6664,
      "ros": 6665,
      "ĠAlert": 6666,
      "Ġcooper": 6667,
      "Ġdeadline": 6668,
      "BM": 6669,
      "Ġvis": 6670,
      "sb": 6671,
      "txt": 6672,
      "ĠCOR": 6673,
      "Houston": 6674,
      "gAB": 6675,
      "Ġexpansion": 6676,
      "ĠAtlanta": 6677,
      "Ġbutton": 6678,
      "Ġhandling": 6679,
      "UG": 6680,
      "][": 6681,
      "elling": 6682,
      "ĠSoftware": 6683,
      "%)": 6684,
      "itely": 6685,
      "but": 6686,
      "Ġstories": 6687,
      "Ġsurpris": 6688,
      "ĠIF": 6689,
      "ĠDiane": 6690,
      "ĠCir": 6691,
      "Ġancillary": 6692,
      "Ġmanner": 6693,
      "ĠSymes": 6694,
      "Ġinvent": 6695,
      "Home": 6696,
      "irus": 6697,
      "Ġbelieves": 6698,
      "ĠOperating": 6699,
      "ĠHOU": 6700,
      "ĠCommissioner": 6701,
      "related": 6702,
      "Ġfix": 6703,
      "rack": 6704,
      "ĠOnly": 6705,
      "ĠErin": 6706,
      "%,": 6707,
      "rase": 6708,
      "ĠPerform": 6709,
      "ĠNicolay": 6710,
      "author": 6711,
      "yi": 6712,
      "ĠDana": 6713,
      "idays": 6714,
      "arges": 6715,
      "vd": 6716,
      "ĠSpe": 6717,
      "master": 6718,
      "Ġ48": 6719,
      "aser": 6720,
      "haas": 6721,
      "Ġjurisdict": 6722,
      "Ġbeyond": 6723,
      "ulate": 6724,
      "world": 6725,
      "ĠCarolyn": 6726,
      "Ġamendment": 6727,
      "Ġletters": 6728,
      "Ġconsolid": 6729,
      "Ġefficient": 6730,
      "Ġglad": 6731,
      "under": 6732,
      "ĠQU": 6733,
      "oster": 6734,
      "MG": 6735,
      "wUAA": 6736,
      "adel": 6737,
      "Ġshopping": 6738,
      "Ġproceeding": 6739,
      "LS": 6740,
      "Ġsqu": 6741,
      "ĠCarter": 6742,
      "Ġpersonnel": 6743,
      "LINE": 6744,
      "ĠExplorer": 6745,
      "amer": 6746,
      "ND": 6747,
      "ERE": 6748,
      "ously": 6749,
      "Ġcapt": 6750,
      "Ġkept": 6751,
      "Ġhelped": 6752,
      "Ġmeasures": 6753,
      "ĠSharon": 6754,
      "ĠStuart": 6755,
      "Ġhands": 6756,
      "baker": 6757,
      "Ġbids": 6758,
      "ĠMed": 6759,
      "ĠFares": 6760,
      "ĠBrenda": 6761,
      "vision": 6762,
      "Ġoperational": 6763,
      "Ġgenerally": 6764,
      "Ġ>>>>": 6765,
      "Ġu": 6766,
      "ternal": 6767,
      "Ġresidential": 6768,
      "Ġincent": 6769,
      "ĠInvestment": 6770,
      "wAAAA": 6771,
      "ĠKansas": 6772,
      "cg": 6773,
      "ĠPool": 6774,
      "ĠKey": 6775,
      "Ġcareer": 6776,
      "ĠDutch": 6777,
      "ĠHans": 6778,
      "ests": 6779,
      "oses": 6780,
      "Ġproposals": 6781,
      "IGHT": 6782,
      "iration": 6783,
      "Ġagent": 6784,
      "Ġsafety": 6785,
      "Car": 6786,
      "5620": 6787,
      "Ġtools": 6788,
      "Ġeight": 6789,
      "aret": 6790,
      "UAB": 6791,
      "travelocity": 6792,
      "Ġreservation": 6793,
      "ĠKat": 6794,
      "Ġauction": 6795,
      "ĠIL": 6796,
      "Ġrise": 6797,
      "ĠPalm": 6798,
      "Ġresolution": 6799,
      "Ġteach": 6800,
      "ĠNewswires": 6801,
      "ĠRam": 6802,
      "ĠHello": 6803,
      "ossum": 6804,
      "Ġencourage": 6805,
      "339": 6806,
      "izes": 6807,
      "ĠParks": 6808,
      "ĠPA": 6809,
      "vention": 6810,
      "rab": 6811,
      "ĠENERGY": 6812,
      "Ġessential": 6813,
      "Ġpredict": 6814,
      "ĠGriff": 6815,
      "Ġacknow": 6816,
      "Ġcovered": 6817,
      "tm": 6818,
      "ĠProduction": 6819,
      "ĠAEP": 6820,
      "Ġthus": 6821,
      "Ġacceptable": 6822,
      "Ġdispute": 6823,
      "ĠHayslett": 6824,
      "aith": 6825,
      "ype": 6826,
      "ensation": 6827,
      "otten": 6828,
      "Ġconnect": 6829,
      "Ġ99": 6830,
      "ĠRoss": 6831,
      "ĠJudy": 6832,
      "ART": 6833,
      "ĠCommerce": 6834,
      "Ġcreditors": 6835,
      "Ġregistration": 6836,
      "ĠNYISO": 6837,
      "Ġloan": 6838,
      "Ġ34": 6839,
      "ĠArizona": 6840,
      "odities": 6841,
      "ĠWITH": 6842,
      "ĠGulf": 6843,
      "Ġscreen": 6844,
      "Ġdescription": 6845,
      "POINT": 6846,
      "click": 6847,
      "Ġextent": 6848,
      "Ġleague": 6849,
      "list": 6850,
      "ifts": 6851,
      "Ġ1997": 6852,
      "ĠAppeals": 6853,
      "ĠLl": 6854,
      "ĠLor": 6855,
      "weet": 6856,
      "ĠRobertson": 6857,
      "Ġce": 6858,
      "Ġaccurate": 6859,
      "AGAB": 6860,
      "////////////////////////////////": 6861,
      "ĠCOLUMBIA": 6862,
      "ĠSil": 6863,
      "------------": 6864,
      "Ġtradition": 6865,
      "ĠCoal": 6866,
      "Ġhesitate": 6867,
      "phtml": 6868,
      "ĠVol": 6869,
      "ĠVictor": 6870,
      "agues": 6871,
      "ĠSitara": 6872,
      "Ġknew": 6873,
      "gIK": 6874,
      "hand": 6875,
      "AAwIO": 6876,
      "ĠMarsh": 6877,
      "AQAA": 6878,
      "ĠNNG": 6879,
      "ĠKent": 6880,
      "Ġminute": 6881,
      "ĠSuzanne": 6882,
      "week": 6883,
      "Ġlocations": 6884,
      "ties": 6885,
      "ĠWeekly": 6886,
      "rik": 6887,
      "ĠAIR": 6888,
      "erski": 6889,
      "cr": 6890,
      "ĠSean": 6891,
      "Ġcommitted": 6892,
      "ĠCrude": 6893,
      "Ġperfect": 6894,
      "ĠAsia": 6895,
      "ĠAvailable": 6896,
      "ĠOpen": 6897,
      "ĠThu": 6898,
      "ĠAlb": 6899,
      "quarter": 6900,
      "phia": 6901,
      "---": 6902,
      "rigue": 6903,
      "Ġcamp": 6904,
      "ĠMolly": 6905,
      "ĠSandra": 6906,
      "ĠSpecials": 6907,
      "ĠDiet": 6908,
      "Ġconvenience": 6909,
      "eless": 6910,
      "ĠProt": 6911,
      "ĠBrid": 6912,
      "Ġleadership": 6913,
      "Ġ97": 6914,
      "las": 6915,
      "tail": 6916,
      "Ġbur": 6917,
      "Ġnomin": 6918,
      "ĠBox": 6919,
      "Ġlisting": 6920,
      "ICK": 6921,
      "ĠUSD": 6922,
      "ofim": 6923,
      "Ġinvolve": 6924,
      "Ġsounds": 6925,
      "ĠJudge": 6926,
      "ĠKam": 6927,
      "Ġhappens": 6928,
      "Ġfavorite": 6929,
      "ĠSullivan": 6930,
      "ĠBO": 6931,
      "ĠDuring": 6932,
      "ĠStewart": 6933,
      "Ġshareholders": 6934,
      "Ġfailure": 6935,
      "VD": 6936,
      "rary": 6937,
      "Ġtempor": 6938,
      "Ġmusic": 6939,
      "Ġ--------------------------------": 6940,
      "ĠQuick": 6941,
      "ĠCross": 6942,
      "Ġ_____________________________________________": 6943,
      "ĠSchwab": 6944,
      "oubt": 6945,
      "alley": 6946,
      "Ġdonate": 6947,
      "sarofim": 6948,
      "ĠCES": 6949,
      "Ġlegally": 6950,
      "Ġenh": 6951,
      "Ġconsent": 6952,
      "Ġoperate": 6953,
      "ĠNDA": 6954,
      "Ġdiv": 6955,
      "ola": 6956,
      "Ġappreciated": 6957,
      "Ġwireless": 6958,
      "Ġstation": 6959,
      "Ġage": 6960,
      "ĠSAP": 6961,
      "osp": 6962,
      "Ġ39": 6963,
      "aq": 6964,
      "Ġboy": 6965,
      "BR": 6966,
      "CAQIG": 6967,
      "Ġbre": 6968,
      "ĠAut": 6969,
      "ĠARE": 6970,
      "including": 6971,
      "ĠMBA": 6972,
      "adelphia": 6973,
      "ISB": 6974,
      "Ġcommitment": 6975,
      "ADYANgA": 6976,
      "That": 6977,
      "ĠMcG": 6978,
      "ĠMot": 6979,
      "202": 6980,
      "cluded": 6981,
      "Ġcompletely": 6982,
      "ĠGrand": 6983,
      "Ġpreferred": 6984,
      "Ġsal": 6985,
      "ĠEP": 6986,
      "ĠKeep": 6987,
      "Ġmajority": 6988,
      "Ġpleased": 6989,
      "ĠPLEASE": 6990,
      "AAAD": 6991,
      "ĠPoint": 6992,
      "ITION": 6993,
      "Ġexercise": 6994,
      "azine": 6995,
      "00000000": 6996,
      "Ġcharact": 6997,
      "Ġreduction": 6998,
      "illa": 6999,
      "VENT": 7000,
      "Ġill": 7001,
      "ĠCy": 7002,
      "prof": 7003,
      "Ġverify": 7004,
      "MWh": 7005,
      "igned": 7006,
      "Ġ$.": 7007,
      "Ġstrategic": 7008,
      "poen": 7009,
      "Ġmass": 7010,
      "ĠHoliday": 7011,
      "draw": 7012,
      "Ġdil": 7013,
      "enny": 7014,
      "wAAAAAAAAEP": 7015,
      "Ġbed": 7016,
      "ĠDA": 7017,
      "amo": 7018,
      "ĠTue": 7019,
      "iamond": 7020,
      "ien": 7021,
      "Ġcrude": 7022,
      "dom": 7023,
      "hen": 7024,
      "va": 7025,
      "ĠMcConnell": 7026,
      "Matthew": 7027,
      "Ġwife": 7028,
      "ĠInstitute": 7029,
      "ĠHend": 7030,
      "Ġjoined": 7031,
      "ĠAdv": 7032,
      "Ġupdates": 7033,
      "Ġcollateral": 7034,
      "Ġdescribed": 7035,
      "gary": 7036,
      "Ġformal": 7037,
      "Ġflex": 7038,
      "apers": 7039,
      "aha": 7040,
      "ĠCarr": 7041,
      "Mc": 7042,
      "fall": 7043,
      "overs": 7044,
      "Ġfocused": 7045,
      "Ġprocessing": 7046,
      "iliar": 7047,
      "ĠJapanese": 7048,
      "ĠMedia": 7049,
      "Ġcaught": 7050,
      "ĠRh": 7051,
      "Ġimplementation": 7052,
      "words": 7053,
      "Ġrad": 7054,
      "ĠKathleen": 7055,
      "andon": 7056,
      "Ġrestructuring": 7057,
      "Ġnature": 7058,
      "ancing": 7059,
      "When": 7060,
      "enger": 7061,
      "ads": 7062,
      "Ġpolicies": 7063,
      "ĠTest": 7064,
      "earing": 7065,
      "Ġ????????????????": 7066,
      "ĠSon": 7067,
      "AAAAB": 7068,
      "Ġpossibly": 7069,
      "Ġregulated": 7070,
      "Ġopened": 7071,
      "Ġsouth": 7072,
      "ĠMiles": 7073,
      "Ġlab": 7074,
      "annot": 7075,
      "Ġthrow": 7076,
      "Ġforth": 7077,
      "iment": 7078,
      "eyer": 7079,
      "Ġproviders": 7080,
      "pected": 7081,
      "])": 7082,
      "Ġlay": 7083,
      "stock": 7084,
      "pping": 7085,
      "ARY": 7086,
      "Ġmot": 7087,
      "Ġhuman": 7088,
      "ĠFwd": 7089,
      "Ġhasn": 7090,
      "jpg": 7091,
      "apse": 7092,
      "Ġ2003": 7093,
      "Ġreferenced": 7094,
      "Ġratings": 7095,
      "leans": 7096,
      "Ġspring": 7097,
      "klah": 7098,
      "Ġinquir": 7099,
      "sports": 7100,
      "xx": 7101,
      "ĠMiami": 7102,
      "ĠOl": 7103,
      "Ġnoon": 7104,
      "uant": 7105,
      "igley": 7106,
      "unicipal": 7107,
      "shackleton": 7108,
      "Ġleader": 7109,
      "Ġlarger": 7110,
      "ĠMu": 7111,
      "prietary": 7112,
      "ureen": 7113,
      "Ġstage": 7114,
      "Ġsn": 7115,
      "andez": 7116,
      "Ġcritic": 7117,
      "Ġfit": 7118,
      "ression": 7119,
      "ĠTechnologies": 7120,
      "ĠNotes": 7121,
      "ĠArthur": 7122,
      "=-=-=-=-=-=-=-=-": 7123,
      "Ġscen": 7124,
      "Ġexperts": 7125,
      "IST": 7126,
      "Jan": 7127,
      "Ġhundred": 7128,
      "vals": 7129,
      "mails": 7130,
      "Ġinstru": 7131,
      "BE": 7132,
      "aud": 7133,
      "aras": 7134,
      "ĠSuper": 7135,
      "Ġself": 7136,
      "ĠLight": 7137,
      "Ġmodels": 7138,
      "oco": 7139,
      "ĠMake": 7140,
      "Ġcentral": 7141,
      "ĠSupply": 7142,
      "ĠCOMP": 7143,
      "Ġbody": 7144,
      "Ġfram": 7145,
      "Ġ503": 7146,
      "ĠIts": 7147,
      "ressed": 7148,
      "fgIK": 7149,
      "Ġannouncement": 7150,
      "IVE": 7151,
      "ĠBoyd": 7152,
      "ĠTech": 7153,
      "ĠJonathan": 7154,
      "klahoma": 7155,
      "ĠFossum": 7156,
      "ĠFort": 7157,
      "MENTS": 7158,
      "ĠTrust": 7159,
      "letters": 7160,
      "Ġfactors": 7161,
      "Ġwarn": 7162,
      "ĠColorado": 7163,
      "ĠTerms": 7164,
      "rence": 7165,
      "Ġprivacy": 7166,
      "Ġpermit": 7167,
      "comes": 7168,
      "Ġaccompl": 7169,
      "ĠAp": 7170,
      "ĠGard": 7171,
      "ples": 7172,
      "inton": 7173,
      "ĠChen": 7174,
      "ĠDomin": 7175,
      "ĠFILE": 7176,
      "Sp": 7177,
      "Ġtask": 7178,
      "Ġbroadband": 7179,
      "Ġcircum": 7180,
      "ĠVirginia": 7181,
      "Am": 7182,
      "Ġ65": 7183,
      "anging": 7184,
      "Ġmechan": 7185,
      "Ġchanging": 7186,
      "ĠSamuel": 7187,
      "Ġcharts": 7188,
      "IBAgYA": 7189,
      "Version": 7190,
      "Ġheart": 7191,
      "ĠGonz": 7192,
      "yer": 7193,
      "Ġrolling": 7194,
      "AW": 7195,
      "uments": 7196,
      "DQ": 7197,
      "ĠActive": 7198,
      "ĠSupreme": 7199,
      "ĠPhiladelphia": 7200,
      "ĠDerrick": 7201,
      "Ġtitle": 7202,
      "Ġhydro": 7203,
      "Ġcompliance": 7204,
      "web": 7205,
      "/?": 7206,
      "VI": 7207,
      "Ġaudit": 7208,
      "Ġdisapp": 7209,
      "oenix": 7210,
      "Ġfelt": 7211,
      "ĠBud": 7212,
      "ĠGall": 7213,
      "Ġadding": 7214,
      "Ġcandidates": 7215,
      "ĠBritish": 7216,
      ")?": 7217,
      "FORM": 7218,
      "Ġordered": 7219,
      "sa": 7220,
      "ĠVolume": 7221,
      "ĠBPA": 7222,
      "ula": 7223,
      "Ġpreliminary": 7224,
      "Ġdemonst": 7225,
      "Ġspecifically": 7226,
      "ĠBroadband": 7227,
      "Ġyes": 7228,
      "ĠNP": 7229,
      "ĠNick": 7230,
      "Ġ49": 7231,
      "ĠPRC": 7232,
      "eller": 7233,
      "Ġfoot": 7234,
      "ĠBall": 7235,
      "ĠAddress": 7236,
      "Rl": 7237,
      "star": 7238,
      "Ġreading": 7239,
      "ĠUse": 7240,
      "shaw": 7241,
      "Ġstore": 7242,
      "Ġaddressee": 7243,
      "ĠWindows": 7244,
      "ios": 7245,
      "erg": 7246,
      "Ġguaranty": 7247,
      "ĠNERC": 7248,
      "WestDesk": 7249,
      "Ġmaximum": 7250,
      "ĠCONT": 7251,
      "SING": 7252,
      "Ġmach": 7253,
      "ĠREC": 7254,
      "ĠStacy": 7255,
      "ĠSwap": 7256,
      "ĠSM": 7257,
      "Ġexpenses": 7258,
      "ulp": 7259,
      "soe": 7260,
      "kt": 7261,
      "yt": 7262,
      ")(": 7263,
      "Ġwomen": 7264,
      "ĠPS": 7265,
      "Ġcrossing": 7266,
      "IENT": 7267,
      "Ġjump": 7268,
      "Ġkeeping": 7269,
      "Ġsufficient": 7270,
      "Ġdelet": 7271,
      "Ġinnov": 7272,
      "Ġrecovery": 7273,
      "Ġcurves": 7274,
      "ĠRoh": 7275,
      "Ġvaluable": 7276,
      "Ġtot": 7277,
      "Ġfinish": 7278,
      "Ġlearned": 7279,
      "ĠYORK": 7280,
      "ĠSpread": 7281,
      "Ġreserves": 7282,
      "Ġsuper": 7283,
      "Ġpicture": 7284,
      "MAIL": 7285,
      "gu": 7286,
      "ĠACC": 7287,
      "idents": 7288,
      "ĠUnit": 7289,
      "ĠRobinson": 7290,
      "ĠDT": 7291,
      "culation": 7292,
      "amily": 7293,
      "Ġsolic": 7294,
      "firm": 7295,
      "ĠCannot": 7296,
      "ĠHyatt": 7297,
      "group": 7298,
      "how": 7299,
      "///": 7300,
      "exp": 7301,
      "OTT": 7302,
      "ĠWhe": 7303,
      "Ġposting": 7304,
      "ĠLonghorn": 7305,
      "ota": 7306,
      "Ġvalues": 7307,
      "ĠAbout": 7308,
      "Ġassigned": 7309,
      "ĠJess": 7310,
      "oody": 7311,
      "mp": 7312,
      "met": 7313,
      "Ġfollowed": 7314,
      "Ġ%": 7315,
      "AAAAAAAABD": 7316,
      "ervis": 7317,
      "ĠZone": 7318,
      "ĠScheduled": 7319,
      "Gl": 7320,
      "Ġcorrespond": 7321,
      "ĠPrior": 7322,
      "this": 7323,
      "Ġrefunds": 7324,
      "Chris": 7325,
      "ĠIndustrial": 7326,
      "QE": 7327,
      "Ġemissions": 7328,
      "SEB": 7329,
      "car": 7330,
      "Ġrepe": 7331,
      "ducing": 7332,
      "ĠJob": 7333,
      "Ġknows": 7334,
      "ĠCollins": 7335,
      "aux": 7336,
      "Ġrespective": 7337,
      "Ġcomplain": 7338,
      "Ġcateg": 7339,
      "ela": 7340,
      "ĠEarn": 7341,
      "ĠBet": 7342,
      "inois": 7343,
      "Ġinflu": 7344,
      "Ġliability": 7345,
      "ĠRoger": 7346,
      "oul": 7347,
      "Ġvirus": 7348,
      "Ġlinks": 7349,
      "ĠDiscuss": 7350,
      "ĠMargaret": 7351,
      "bridge": 7352,
      "Ġfare": 7353,
      "Ġalone": 7354,
      "ĠAssociate": 7355,
      "Ġanswers": 7356,
      "BSCRIBE": 7357,
      "ĠSettlement": 7358,
      "top": 7359,
      "Ġhighest": 7360,
      "ĠWorks": 7361,
      "ĠNetworks": 7362,
      "cap": 7363,
      "Ġcult": 7364,
      "ORD": 7365,
      "isement": 7366,
      "ĠWalker": 7367,
      "online": 7368,
      "Ġlitigation": 7369,
      "Ġreviewing": 7370,
      "Ġattending": 7371,
      "kwGT": 7372,
      "kle": 7373,
      "Ġpain": 7374,
      "ĠHOUSTON": 7375,
      "craft": 7376,
      "Ġmultiple": 7377,
      "Fr": 7378,
      "like": 7379,
      "ĠIC": 7380,
      "ĠHappy": 7381,
      "ĠBelow": 7382,
      "paper": 7383,
      "Ġshortly": 7384,
      "Ġproduced": 7385,
      "ĠDenne": 7386,
      "ĠMESSAGES": 7387,
      "ĠEnd": 7388,
      "Ġspeaking": 7389,
      "Ġrecall": 7390,
      "Ġexcell": 7391,
      "Ġcoordinate": 7392,
      "ĠWSCC": 7393,
      "Ġsignature": 7394,
      "ikes": 7395,
      "Will": 7396,
      "Be": 7397,
      "ij": 7398,
      "iot": 7399,
      "ANGE": 7400,
      "ĠValue": 7401,
      "round": 7402,
      "ĠDonald": 7403,
      "ĠMARKET": 7404,
      "Ġended": 7405,
      "ĠAmend": 7406,
      "Ġdropped": 7407,
      "Ig": 7408,
      "ĠTransportation": 7409,
      "ĠMO": 7410,
      "ĠBrook": 7411,
      "ĠAccounting": 7412,
      "antic": 7413,
      "ĠAnother": 7414,
      "Ġmiddle": 7415,
      "ĠPam": 7416,
      "Ġinvite": 7417,
      "pb": 7418,
      "RED": 7419,
      "ĠRodrigue": 7420,
      "ĠGAS": 7421,
      "Ġemployment": 7422,
      "istan": 7423,
      "BP": 7424,
      "ĠMath": 7425,
      "bar": 7426,
      "ĠThanksgiving": 7427,
      "ĠKeiser": 7428,
      "ĠDarron": 7429,
      "Ġconflict": 7430,
      "rench": 7431,
      "Ġcorn": 7432,
      "ĠSERV": 7433,
      "unte": 7434,
      "Ġ42": 7435,
      "ĠAF": 7436,
      "ĠPerson": 7437,
      "Scott": 7438,
      "ĠCert": 7439,
      "ĠHas": 7440,
      "Ġupcoming": 7441,
      "Ġhereby": 7442,
      "ĠStill": 7443,
      "Not": 7444,
      "itled": 7445,
      "authorized": 7446,
      "Ġsun": 7447,
      "Ġmailto": 7448,
      "Ġpromot": 7449,
      "Ġnegotiated": 7450,
      "lead": 7451,
      "ĠPlay": 7452,
      "clusion": 7453,
      "ĠCST": 7454,
      "ĠPhoenix": 7455,
      "ĠQuantity": 7456,
      "orse": 7457,
      "ĠBoy": 7458,
      "ĠDoll": 7459,
      "ĠLake": 7460,
      "Ġextension": 7461,
      "dlr": 7462,
      "Ġhedge": 7463,
      "ĠLLP": 7464,
      "unsubscribe": 7465,
      "ĠAAAA": 7466,
      "Ġarrangements": 7467,
      "Ġaffected": 7468,
      "ĠOrleans": 7469,
      "CD": 7470,
      "Neutral": 7471,
      "reli": 7472,
      "ĠCare": 7473,
      "ĠMorris": 7474,
      "redit": 7475,
      "ĠAnthony": 7476,
      "Ġquoted": 7477,
      "Ġhelping": 7478,
      "Ġfundament": 7479,
      "Ġsuffered": 7480,
      "Ġpopular": 7481,
      "fares": 7482,
      "ĠHodge": 7483,
      "ĠTheresa": 7484,
      "aman": 7485,
      "Ġrelating": 7486,
      "Ġrestrictions": 7487,
      "AAAAAAAABDwAI": 7488,
      "Ġoutput": 7489,
      "Ġadvoc": 7490,
      "ĠRohauer": 7491,
      "IZ": 7492,
      "ĠCommodity": 7493,
      "Ġmanagers": 7494,
      "Ġclicking": 7495,
      "Ġcovering": 7496,
      "Ġsignificantly": 7497,
      "Ġcomfortable": 7498,
      "Ġmm": 7499,
      "Ġdivision": 7500,
      "ĠOx": 7501,
      "CAA": 7502,
      "ĠForum": 7503,
      "ĠHaas": 7504,
      "ĠJacoby": 7505,
      "oost": 7506,
      "ĠExper": 7507,
      "Ġproprietary": 7508,
      "htra": 7509,
      "Ġdefined": 7510,
      "Neutralize": 7511,
      "Ġlobby": 7512,
      "ĠComnes": 7513,
      "ibbean": 7514,
      "Ġ160": 7515,
      "ĠSPEC": 7516,
      "eminar": 7517,
      "ĠImpact": 7518,
      "ĠHealth": 7519,
      "Ġbacked": 7520,
      "Ġpiece": 7521,
      "ĠAvenue": 7522,
      "ĠMarcus": 7523,
      "Ġcomprehensive": 7524,
      "ĠDev": 7525,
      "ĠConfirmation": 7526,
      "SM": 7527,
      "EU": 7528,
      "Ġexecute": 7529,
      "Ġlegislative": 7530,
      "Ġdefinitely": 7531,
      "Ġgirl": 7532,
      "mo": 7533,
      "????????????": 7534,
      "ĠExpress": 7535,
      "vgA": 7536,
      "ĠOH": 7537,
      "izens": 7538,
      "Ġinside": 7539,
      "Ġrepresentatives": 7540,
      "Ġinjured": 7541,
      "ferences": 7542,
      "Ġminor": 7543,
      "Ġ========================": 7544,
      "Ġjohn": 7545,
      "Ġfinancially": 7546,
      "Ġpresented": 7547,
      "ĠGrant": 7548,
      "ylvan": 7549,
      "Ġ-->>": 7550,
      "Ġoptim": 7551,
      "Ġresponses": 7552,
      "ĠPARSING": 7553,
      "apore": 7554,
      "ĠMirant": 7555,
      "regon": 7556,
      "Ġvolatility": 7557,
      "Ġconsulting": 7558,
      "ĠTXU": 7559,
      "Ġ_________________________________________________________________": 7560,
      "Fax": 7561,
      "enty": 7562,
      "Ġ47": 7563,
      "ĠRepublicans": 7564,
      "ĠBowen": 7565,
      "arashtra": 7566,
      "ĠAttorney": 7567,
      "ĠNev": 7568,
      "Ġmanaged": 7569,
      "icon": 7570,
      "rike": 7571,
      "ĠKingerski": 7572,
      "bars": 7573,
      "Ġlenders": 7574,
      "Ġautomatically": 7575,
      "INA": 7576,
      "Ġpremium": 7577,
      "inda": 7578,
      "ĠStud": 7579,
      "ĠENE": 7580,
      "Ġpaste": 7581,
      "ĠGarcia": 7582,
      "atin": 7583,
      "ĠUser": 7584,
      "Ġcollapse": 7585,
      "Ġgen": 7586,
      "::::": 7587,
      "Ġachieve": 7588,
      "Ġlock": 7589,
      "NYSE": 7590,
      "earn": 7591,
      "SS": 7592,
      "Ġnorth": 7593,
      "Ġbirth": 7594,
      "arents": 7595,
      "Exchange": 7596,
      "river": 7597,
      "ĠVill": 7598,
      "DR": 7599,
      "hi": 7600,
      "ĠAppointment": 7601,
      "ĠLegislature": 7602,
      "rest": 7603,
      "Ġtouchdown": 7604,
      "payers": 7605,
      "ĠSite": 7606,
      "ĠOklahoma": 7607,
      "Ġjud": 7608,
      "ĠMcL": 7609,
      "ĠMaybe": 7610,
      "ĠOperator": 7611,
      "Ġeducation": 7612,
      "Ġfresh": 7613,
      "essee": 7614,
      "annel": 7615,
      "ĠMaharashtra": 7616,
      "BJ": 7617,
      "Ġaris": 7618,
      "ĠBU": 7619,
      "Ġserver": 7620,
      "ĠPeople": 7621,
      "hh": 7622,
      "Ġhelps": 7623,
      "ersey": 7624,
      "bus": 7625,
      "Ġextended": 7626,
      "Ġattack": 7627,
      "Ġsubpoen": 7628,
      "Ġentry": 7629,
      "ĠMaureen": 7630,
      "ĠExhibit": 7631,
      "Ġ________________": 7632,
      "ĠAz": 7633,
      "ĠWatch": 7634,
      "ĠGame": 7635,
      "ALE": 7636,
      "Ġfamiliar": 7637,
      "Ġcircumst": 7638,
      "Leg": 7639,
      "So": 7640,
      "DF": 7641,
      "Ġpoor": 7642,
      "ĠCompanies": 7643,
      "ĠRegister": 7644,
      "!?": 7645,
      "vl": 7646,
      "ĠMom": 7647,
      "Ġgiant": 7648,
      "Ġ55": 7649,
      "Ġslightly": 7650,
      "Ġsometime": 7651,
      "Ġkids": 7652,
      "ĠCaribbean": 7653,
      "ĠPayment": 7654,
      "Ġexpectations": 7655,
      "ĠOm": 7656,
      "osel": 7657,
      "ĠQuestions": 7658,
      "Tra": 7659,
      "Ab": 7660,
      "har": 7661,
      "ĠInvestors": 7662,
      "Ġeasily": 7663,
      "ĠAnnounce": 7664,
      "rr": 7665,
      "ĠChina": 7666,
      "Ġtiming": 7667,
      "cpuc": 7668,
      "gn": 7669,
      "Ġanyway": 7670,
      "ĠGiron": 7671,
      "TD": 7672,
      "Ġdeliveries": 7673,
      "ylvania": 7674,
      "ĠMean": 7675,
      "ĠPack": 7676,
      "ĠSpons": 7677,
      "Ġstream": 7678,
      "Ġtreatment": 7679,
      "RS": 7680,
      "east": 7681,
      "ĠThose": 7682,
      "ĠFootball": 7683,
      "Ġowns": 7684,
      "NO": 7685,
      "igible": 7686,
      "ordon": 7687,
      "Link": 7688,
      "olis": 7689,
      "ĠPlus": 7690,
      "ĠWayne": 7691,
      "=======": 7692,
      "ĠPit": 7693,
      "icks": 7694,
      "ĠLloyd": 7695,
      "ĠRose": 7696,
      "ĠAmericas": 7697,
      "Ġhimself": 7698,
      "0600": 7699,
      "Ġlawmakers": 7700,
      "ĠRybars": 7701,
      "ĠRybarski": 7702,
      "Kay": 7703,
      "Ġbilling": 7704,
      "Ġinvited": 7705,
      "ĠMidwest": 7706,
      "ĠConfidentiality": 7707,
      "Ġapplied": 7708,
      "ĠInterest": 7709,
      "Dan": 7710,
      "El": 7711,
      "ĠDanny": 7712,
      "ĠDR": 7713,
      "avig": 7714,
      "Ġmembership": 7715,
      "uer": 7716,
      "eggy": 7717,
      "Ġrestrict": 7718,
      "Ġparticipating": 7719,
      "Ġrealize": 7720,
      "Ġestate": 7721,
      "Ġofficers": 7722,
      "Ġcounter": 7723,
      "Ġtool": 7724,
      "ĠShipp": 7725,
      "sylvania": 7726,
      "arters": 7727,
      "ĠGill": 7728,
      "FGT": 7729,
      "cons": 7730,
      "ĠMerc": 7731,
      "des": 7732,
      "ĠBloomberg": 7733,
      "plus": 7734,
      "rigger": 7735,
      "alty": 7736,
      "Ġbeaut": 7737,
      "ĠRight": 7738,
      "ifying": 7739,
      "Ġprotected": 7740,
      "Ġgenerator": 7741,
      "Ġrequesting": 7742,
      "Ġhoping": 7743,
      "ĠAdditional": 7744,
      "Ġchecking": 7745,
      "aly": 7746,
      "Ġheat": 7747,
      "jamin": 7748,
      "Steve": 7749,
      "aled": 7750,
      "Ġdoubt": 7751,
      "Reph": 7752,
      "Ġcold": 7753,
      "ĠOb": 7754,
      "Ġbackground": 7755,
      "ika": 7756,
      "Rephrase": 7757,
      "Ġgenerated": 7758,
      "shop": 7759,
      "Ġtestimony": 7760,
      "Ġoriginally": 7761,
      "ĠBa": 7762,
      "ĠRef": 7763,
      "Ġfilings": 7764,
      "Ġ****************************************": 7765,
      "QL": 7766,
      "hood": 7767,
      "Ġexclusive": 7768,
      "ĠDor": 7769,
      "Ġadequ": 7770,
      "Ġpassing": 7771,
      "Ġneigh": 7772,
      "ĠFinally": 7773,
      "Ġaccord": 7774,
      "altim": 7775,
      "ĠTurb": 7776,
      "ahon": 7777,
      "Ġzero": 7778,
      "CS": 7779,
      "Ġarticles": 7780,
      "ĠDemocratic": 7781,
      "Ġrough": 7782,
      "ACK": 7783,
      "OTS": 7784,
      "wAAAAAAAAEPAAgCE": 7785,
      "Ġstraight": 7786,
      "ĠWes": 7787,
      "iful": 7788,
      "iding": 7789,
      "ĠTrib": 7790,
      "Ġattacks": 7791,
      "Ġ********************************************************": 7792,
      "wAB": 7793,
      "Ġdth": 7794,
      "Ġallowing": 7795,
      "Date": 7796,
      "Ġlaws": 7797,
      "Ġcolor": 7798,
      "isation": 7799,
      "ĠPresent": 7800,
      "ĠLin": 7801,
      "ĠEnvironmental": 7802,
      "Pl": 7803,
      "bW": 7804,
      "bal": 7805,
      "Ġfolder": 7806,
      "Ġrepresents": 7807,
      "Dasovich": 7808,
      "face": 7809,
      "aves": 7810,
      "Ġlicense": 7811,
      "ĠHughes": 7812,
      "Ġbound": 7813,
      "Ġarch": 7814,
      "cos": 7815,
      "ĠAlleg": 7816,
      "Ġgenerate": 7817,
      "Ġreliability": 7818,
      "bakernet": 7819,
      "Ġyoung": 7820,
      "ĠGISB": 7821,
      "Ġpriority": 7822,
      "Reword": 7823,
      "SFO": 7824,
      "Ġvaluation": 7825,
      "ĠPetroleum": 7826,
      "Ġcompar": 7827,
      "Ġfinished": 7828,
      "houston": 7829,
      "ĠWend": 7830,
      "irk": 7831,
      "owski": 7832,
      "ĠRetail": 7833,
      "acks": 7834,
      "ĠAlber": 7835,
      "ĠMad": 7836,
      "Ġsara": 7837,
      "changes": 7838,
      "ĠBased": 7839,
      "Ġvict": 7840,
      "Ġdamage": 7841,
      "gal": 7842,
      "ĠFacility": 7843,
      "Mike": 7844,
      "Ġpropose": 7845,
      "Ġhar": 7846,
      "ĠCaliforn": 7847,
      "Ġuses": 7848,
      "press": 7849,
      "Ġcontents": 7850,
      "veland": 7851,
      "Ġcharacter": 7852,
      "ĠREG": 7853,
      "fts": 7854,
      "ĠAES": 7855,
      "Ġ52": 7856,
      "Ġaw": 7857,
      "Ġwhite": 7858,
      "ulations": 7859,
      "ĠSellers": 7860,
      "ĠAustralia": 7861,
      "ĠCAL": 7862,
      "ĠAlexander": 7863,
      "3393": 7864,
      "Ġdut": 7865,
      "Ġassistant": 7866,
      "Ġ150": 7867,
      "ABgAb": 7868,
      "gAAAA": 7869,
      "ains": 7870,
      "ĠFrance": 7871,
      "ĠTeresa": 7872,
      "ĠPaper": 7873,
      "ĠArgent": 7874,
      "ĠECTR": 7875,
      "Ġfrequ": 7876,
      "Ġgreen": 7877,
      "Ġsafe": 7878,
      "Ġorganizations": 7879,
      "ĠFind": 7880,
      "ĠGoss": 7881,
      "Ġcreating": 7882,
      "ĠPalo": 7883,
      "BI": 7884,
      "Ġsocial": 7885,
      "Ġrevisions": 7886,
      "def": 7887,
      "inion": 7888,
      "riptions": 7889,
      "ricia": 7890,
      "Ġgoals": 7891,
      "ĠCalgary": 7892,
      "Ġbull": 7893,
      "ĠCase": 7894,
      "ĠMC": 7895,
      "Ġreve": 7896,
      "Ġunique": 7897,
      "Bill": 7898,
      "fast": 7899,
      "ĠQuigley": 7900,
      "TON": 7901,
      "sy": 7902,
      "lection": 7903,
      "Ġallocation": 7904,
      "Ġtechnologies": 7905,
      "Ġreservations": 7906,
      "Ġexpensive": 7907,
      "Ġreform": 7908,
      "essions": 7909,
      "ĠAssignment": 7910,
      "Qu": 7911,
      "7658": 7912,
      "Ġmarked": 7913,
      "ĠOregon": 7914,
      "ĠColle": 7915,
      "Ġowed": 7916,
      "Ġdefend": 7917,
      "ĠCORP": 7918,
      "Kaminski": 7919,
      "woman": 7920,
      "Ġdealing": 7921,
      "links": 7922,
      "gAY": 7923,
      "Ġequal": 7924,
      "riber": 7925,
      "explorer": 7926,
      "ded": 7927,
      "ĠPerformance": 7928,
      "Ġran": 7929,
      "ĠCommercial": 7930,
      "Ġknee": 7931,
      "ffic": 7932,
      "Ġcommodities": 7933,
      "ĠDAY": 7934,
      "iller": 7935,
      "Bh": 7936,
      "avis": 7937,
      "Ġwondering": 7938,
      "tario": 7939,
      "Ġworry": 7940,
      "Ġparts": 7941,
      "ĠEntergy": 7942,
      "cera": 7943,
      "ĠAngela": 7944,
      "PH": 7945,
      "oz": 7946,
      "Ġemails": 7947,
      "Ġshowed": 7948,
      "ĠAirport": 7949,
      "ĠSubsc": 7950,
      "edge": 7951,
      "Ġexciting": 7952,
      "Ġresolved": 7953,
      "Ġ3885": 7954,
      "Ġexempt": 7955,
      "Ġdevelopments": 7956,
      "accone": 7957,
      "RY": 7958,
      "ĠMerr": 7959,
      "pet": 7960,
      "Ġ145": 7961,
      "abil": 7962,
      "Ġdeath": 7963,
      "Ġinvoices": 7964,
      "----------------------------------------------------------------": 7965,
      "Ġsk": 7966,
      "owned": 7967,
      "ĠAdvis": 7968,
      "Ind": 7969,
      "Ġenjoyed": 7970,
      "Ġpages": 7971,
      "ĠCERA": 7972,
      "urement": 7973,
      "ĠNeil": 7974,
      "Ġabsol": 7975,
      "ini": 7976,
      "ĠMac": 7977,
      "ĠChase": 7978,
      "ĠCleveland": 7979,
      "Ġburn": 7980,
      "Ġdisclose": 7981,
      "ĠInf": 7982,
      "ĠStore": 7983,
      "ĠDEAL": 7984,
      "aG": 7985,
      "oline": 7986,
      "Ġtradem": 7987,
      "ĠCustomers": 7988,
      "ĠIllinois": 7989,
      "Pw": 7990,
      "opped": 7991,
      "ABk": 7992,
      "ĠCole": 7993,
      "Ġerichardson": 7994,
      "AAI": 7995,
      "QAZ": 7996,
      "ĠPhillips": 7997,
      "109": 7998,
      "Ġmailbox": 7999
    },
    "merges": [
      [
        "Ġ",
        "t"
      ],
      [
        "Ġ",
        "a"
      ],
      [
        "i",
        "n"
      ],
      [
        "o",
        "n"
      ],
      [
        "e",
        "r"
      ],
      [
        "-",
        "-"
      ],
      [
        "Ġt",
        "h"
      ],
      [
        "r",
        "e"
      ],
      [
        "o",
        "r"
      ],
      [
        "e",
        "n"
      ],
      [
        "a",
        "t"
      ],
      [
        "Ġth",
        "e"
      ],
      [
        "a",
        "n"
      ],
      [
        "e",
        "s"
      ],
      [
        "Ġ",
        "s"
      ],
      [
        "o",
        "u"
      ],
      [
        "Ġ",
        "w"
      ],
      [
        "i",
        "s"
      ],
      [
        "Ġ",
        "c"
      ],
      [
        "e",
        "d"
      ],
      [
        "i",
        "t"
      ],
      [
        "a",
        "r"
      ],
      [
        "a",
        "l"
      ],
      [
        "Ġ",
        "p"
      ],
      [
        "Ġ",
        "b"
      ],
      [
        "Ġ",
        "f"
      ],
      [
        "Ġt",
        "o"
      ],
      [
        "o",
        "m"
      ],
      [
        "--",
        "--"
      ],
      [
        "in",
        "g"
      ],
      [
        "Ġ",
        "o"
      ],
      [
        "Ġa",
        "n"
      ],
      [
        "A",
        "A"
      ],
      [
        "Ġ",
        "S"
      ],
      [
        "i",
        "l"
      ],
      [
        "*",
        "*"
      ],
      [
        "Ġ",
        "m"
      ],
      [
        "Ġ",
        "T"
      ],
      [
        "a",
        "s"
      ],
      [
        "i",
        "c"
      ],
      [
        "Ġ",
        "h"
      ],
      [
        "i",
        "on"
      ],
      [
        "Ġ",
        "in"
      ],
      [
        "l",
        "e"
      ],
      [
        "_",
        "_"
      ],
      [
        "Ġ",
        "d"
      ],
      [
        "Ġ",
        "C"
      ],
      [
        "Ġo",
        "f"
      ],
      [
        "en",
        "t"
      ],
      [
        "Ġan",
        "d"
      ],
      [
        "Ġ",
        "A"
      ],
      [
        "c",
        "t"
      ],
      [
        "Ġ",
        "M"
      ],
      [
        "Ġ",
        "I"
      ],
      [
        "0",
        "0"
      ],
      [
        "Ġ",
        "P"
      ],
      [
        "Ġ",
        "re"
      ],
      [
        "e",
        "t"
      ],
      [
        "e",
        "l"
      ],
      [
        "a",
        "y"
      ],
      [
        "Ġ",
        "n"
      ],
      [
        "Ġ",
        "y"
      ],
      [
        "Ġ",
        "E"
      ],
      [
        "r",
        "o"
      ],
      [
        "v",
        "e"
      ],
      [
        "Ġ",
        "F"
      ],
      [
        "u",
        "s"
      ],
      [
        "Ġ",
        ">"
      ],
      [
        "Ġ",
        "e"
      ],
      [
        "Ġ",
        "D"
      ],
      [
        "Ġy",
        "ou"
      ],
      [
        "o",
        "w"
      ],
      [
        "Ġf",
        "or"
      ],
      [
        "i",
        "d"
      ],
      [
        "**",
        "**"
      ],
      [
        "Ġ",
        "l"
      ],
      [
        "Ġ",
        "on"
      ],
      [
        "Ġ",
        "R"
      ],
      [
        "Ġ",
        "1"
      ],
      [
        "c",
        "h"
      ],
      [
        "Ġ",
        "g"
      ],
      [
        "----",
        "----"
      ],
      [
        "o",
        "t"
      ],
      [
        "r",
        "on"
      ],
      [
        "Ġb",
        "e"
      ],
      [
        "Ġ",
        "is"
      ],
      [
        "Ġ",
        "B"
      ],
      [
        "__",
        "__"
      ],
      [
        "c",
        "e"
      ],
      [
        "ĠT",
        "h"
      ],
      [
        "AA",
        "AA"
      ],
      [
        "il",
        "l"
      ],
      [
        "at",
        "ion"
      ],
      [
        "Ġ",
        "2"
      ],
      [
        "i",
        "g"
      ],
      [
        "Ġ",
        "W"
      ],
      [
        "r",
        "a"
      ],
      [
        "o",
        "l"
      ],
      [
        "s",
        "t"
      ],
      [
        "=",
        "="
      ],
      [
        "l",
        "y"
      ],
      [
        "u",
        "t"
      ],
      [
        "Ġ",
        "J"
      ],
      [
        "Ġ",
        "N"
      ],
      [
        "i",
        "m"
      ],
      [
        "c",
        "om"
      ],
      [
        "u",
        "r"
      ],
      [
        "Ġ",
        "("
      ],
      [
        "Ġ",
        "H"
      ],
      [
        "Ġth",
        "at"
      ],
      [
        "er",
        "s"
      ],
      [
        "Ġ",
        "L"
      ],
      [
        "u",
        "n"
      ],
      [
        "g",
        "e"
      ],
      [
        "es",
        "t"
      ],
      [
        "t",
        "h"
      ],
      [
        "it",
        "h"
      ],
      [
        "m",
        "ent"
      ],
      [
        "E",
        "C"
      ],
      [
        "es",
        "s"
      ],
      [
        "at",
        "e"
      ],
      [
        "Ġc",
        "on"
      ],
      [
        "n",
        "ron"
      ],
      [
        "e",
        "ct"
      ],
      [
        "Ġ",
        "G"
      ],
      [
        "Ġh",
        "a"
      ],
      [
        "r",
        "om"
      ],
      [
        "i",
        "f"
      ],
      [
        "a",
        "m"
      ],
      [
        "t",
        "er"
      ],
      [
        "v",
        "er"
      ],
      [
        "EC",
        "T"
      ],
      [
        "Ġw",
        "h"
      ],
      [
        "Ġa",
        "t"
      ],
      [
        "Ġs",
        "t"
      ],
      [
        "'",
        "s"
      ],
      [
        "u",
        "b"
      ],
      [
        "Ġw",
        "ith"
      ],
      [
        "Ġ",
        "it"
      ],
      [
        "i",
        "r"
      ],
      [
        "a",
        "il"
      ],
      [
        "Ġp",
        "ro"
      ],
      [
        "Ġth",
        "is"
      ],
      [
        "Ġ",
        "O"
      ],
      [
        "l",
        "d"
      ],
      [
        "Ġa",
        "s"
      ],
      [
        "u",
        "l"
      ],
      [
        "Ġw",
        "e"
      ],
      [
        "o",
        "s"
      ],
      [
        "e",
        "w"
      ],
      [
        "Ġc",
        "om"
      ],
      [
        "a",
        "d"
      ],
      [
        "****",
        "****"
      ],
      [
        "Ġ",
        "0"
      ],
      [
        "Ġ",
        "or"
      ],
      [
        "k",
        "e"
      ],
      [
        "Ġa",
        "re"
      ],
      [
        "c",
        "k"
      ],
      [
        "ar",
        "d"
      ],
      [
        "Ġ",
        "-"
      ],
      [
        "?",
        "?"
      ],
      [
        "r",
        "i"
      ],
      [
        "Ġha",
        "ve"
      ],
      [
        "e",
        "m"
      ],
      [
        "p",
        "p"
      ],
      [
        "Ġw",
        "ill"
      ],
      [
        "a",
        "ge"
      ],
      [
        "ou",
        "ld"
      ],
      [
        "Ġ",
        "\""
      ],
      [
        "er",
        "e"
      ],
      [
        "____",
        "____"
      ],
      [
        "Ġn",
        "ot"
      ],
      [
        "Ġa",
        "l"
      ],
      [
        "q",
        "u"
      ],
      [
        "ou",
        "r"
      ],
      [
        "Ġb",
        "y"
      ],
      [
        "en",
        "d"
      ],
      [
        "/",
        "/"
      ],
      [
        "ĠTh",
        "e"
      ],
      [
        "d",
        "ay"
      ],
      [
        "it",
        "y"
      ],
      [
        "as",
        "e"
      ],
      [
        "re",
        "s"
      ],
      [
        "an",
        "t"
      ],
      [
        "ou",
        "t"
      ],
      [
        "or",
        "t"
      ],
      [
        "an",
        "d"
      ],
      [
        "ar",
        "t"
      ],
      [
        "00",
        "1"
      ],
      [
        "j",
        "ect"
      ],
      [
        "Ġ",
        "K"
      ],
      [
        ".",
        "."
      ],
      [
        "==",
        "=="
      ],
      [
        "b",
        "er"
      ],
      [
        "ĠT",
        "o"
      ],
      [
        "a",
        "b"
      ],
      [
        "--------",
        "--------"
      ],
      [
        "e",
        "c"
      ],
      [
        "h",
        "t"
      ],
      [
        "----",
        "-"
      ],
      [
        "O",
        "U"
      ],
      [
        "O",
        "N"
      ],
      [
        "is",
        "t"
      ],
      [
        "E",
        "N"
      ],
      [
        "f",
        "f"
      ],
      [
        "Ġ",
        "$"
      ],
      [
        "Ġm",
        "e"
      ],
      [
        "Ġs",
        "h"
      ],
      [
        "ĠI",
        "n"
      ],
      [
        "o",
        "p"
      ],
      [
        "u",
        "m"
      ],
      [
        "ou",
        "n"
      ],
      [
        "Ġf",
        "rom"
      ],
      [
        "AAAA",
        "AAAA"
      ],
      [
        "Ġe",
        "x"
      ],
      [
        "r",
        "ic"
      ],
      [
        "us",
        "t"
      ],
      [
        "i",
        "es"
      ],
      [
        "o",
        "re"
      ],
      [
        "t",
        "a"
      ],
      [
        "al",
        "l"
      ],
      [
        "ub",
        "ject"
      ],
      [
        "ĠE",
        "nron"
      ],
      [
        "Ġ",
        "r"
      ],
      [
        "ar",
        "k"
      ],
      [
        "i",
        "v"
      ],
      [
        "E",
        "nron"
      ],
      [
        "o",
        "o"
      ],
      [
        "Ġ",
        "v"
      ],
      [
        "H",
        "OU"
      ],
      [
        "i",
        "ve"
      ],
      [
        "ĠS",
        "t"
      ],
      [
        "Ġyou",
        "r"
      ],
      [
        "Ġd",
        "e"
      ],
      [
        "u",
        "p"
      ],
      [
        "ic",
        "h"
      ],
      [
        "ĠS",
        "ubject"
      ],
      [
        "an",
        "k"
      ],
      [
        "ion",
        "s"
      ],
      [
        "Ġ",
        "U"
      ],
      [
        "m",
        "ail"
      ],
      [
        "el",
        "l"
      ],
      [
        "Ġ",
        "le"
      ],
      [
        "00",
        "0"
      ],
      [
        "i",
        "al"
      ],
      [
        "e",
        "ar"
      ],
      [
        "g",
        "y"
      ],
      [
        "Ġcom",
        "p"
      ],
      [
        "in",
        "e"
      ],
      [
        "Ġ",
        "3"
      ],
      [
        "Ġc",
        "h"
      ],
      [
        "s",
        "e"
      ],
      [
        "i",
        "p"
      ],
      [
        "le",
        "ase"
      ],
      [
        "e",
        "p"
      ],
      [
        "Ġ",
        "un"
      ],
      [
        "u",
        "re"
      ],
      [
        "a",
        "p"
      ],
      [
        "i",
        "a"
      ],
      [
        "Ġan",
        "y"
      ],
      [
        "Ġn",
        "e"
      ],
      [
        "Ġd",
        "o"
      ],
      [
        "ig",
        "ht"
      ],
      [
        "Ġw",
        "as"
      ],
      [
        "e",
        "e"
      ],
      [
        "d",
        "er"
      ],
      [
        "ĠP",
        "M"
      ],
      [
        "Ġ",
        "V"
      ],
      [
        "w",
        "w"
      ],
      [
        "Ġ2",
        "001"
      ],
      [
        "an",
        "s"
      ],
      [
        "as",
        "t"
      ],
      [
        "Ġa",
        "d"
      ],
      [
        "R",
        "ON"
      ],
      [
        "Ġh",
        "as"
      ],
      [
        "Ġ",
        "us"
      ],
      [
        "ĠC",
        "h"
      ],
      [
        "ess",
        "age"
      ],
      [
        "Ġa",
        "b"
      ],
      [
        "in",
        "al"
      ],
      [
        "Ġ",
        "k"
      ],
      [
        "a",
        "ck"
      ],
      [
        "at",
        "ed"
      ],
      [
        "Ġp",
        "l"
      ],
      [
        "u",
        "d"
      ],
      [
        "ic",
        "e"
      ],
      [
        "on",
        "e"
      ],
      [
        "ar",
        "y"
      ],
      [
        "EN",
        "RON"
      ],
      [
        "i",
        "e"
      ],
      [
        "an",
        "y"
      ],
      [
        "Ġw",
        "ould"
      ],
      [
        "ow",
        "er"
      ],
      [
        "i",
        "re"
      ],
      [
        "f",
        "or"
      ],
      [
        "Ġc",
        "an"
      ],
      [
        "********",
        "********"
      ],
      [
        "a",
        "g"
      ],
      [
        "r",
        "y"
      ],
      [
        "er",
        "gy"
      ],
      [
        "t",
        "t"
      ],
      [
        "Ġal",
        "l"
      ],
      [
        "or",
        "k"
      ],
      [
        "re",
        "e"
      ],
      [
        "ĠF",
        "rom"
      ],
      [
        "Ġre",
        "s"
      ],
      [
        "Ġ",
        "Y"
      ],
      [
        "Ġ",
        "en"
      ],
      [
        "E",
        "S"
      ],
      [
        "h",
        "er"
      ],
      [
        "u",
        "e"
      ],
      [
        "c",
        "c"
      ],
      [
        "Ġs",
        "a"
      ],
      [
        "or",
        "p"
      ],
      [
        "ĠR",
        "e"
      ],
      [
        "o",
        "st"
      ],
      [
        "Ġ",
        "up"
      ],
      [
        "Ġa",
        "g"
      ],
      [
        "Ġ",
        "7"
      ],
      [
        "o",
        "c"
      ],
      [
        "Ġh",
        "e"
      ],
      [
        "a",
        "re"
      ],
      [
        "Ġs",
        "u"
      ],
      [
        "Ġ",
        ","
      ],
      [
        "ou",
        "g"
      ],
      [
        "a",
        "in"
      ],
      [
        "Ġ",
        "j"
      ],
      [
        "Ġcon",
        "t"
      ],
      [
        "Ġ",
        "-----"
      ],
      [
        "th",
        "er"
      ],
      [
        "f",
        "er"
      ],
      [
        "a",
        "k"
      ],
      [
        "ra",
        "d"
      ],
      [
        "er",
        "v"
      ],
      [
        "ic",
        "k"
      ],
      [
        "l",
        "l"
      ],
      [
        "ation",
        "s"
      ],
      [
        "ĠC",
        "om"
      ],
      [
        "ark",
        "et"
      ],
      [
        "E",
        "R"
      ],
      [
        "0",
        "1"
      ],
      [
        "________",
        "________"
      ],
      [
        "or",
        "n"
      ],
      [
        "en",
        "ce"
      ],
      [
        "Ġ",
        "if"
      ],
      [
        "A",
        "G"
      ],
      [
        "ĠA",
        "n"
      ],
      [
        "n",
        "ow"
      ],
      [
        "p",
        "l"
      ],
      [
        "??",
        "??"
      ],
      [
        "r",
        "ig"
      ],
      [
        "e",
        "x"
      ],
      [
        "ĠA",
        "M"
      ],
      [
        "Ġ",
        "our"
      ],
      [
        "a",
        "c"
      ],
      [
        "Ġ",
        "out"
      ],
      [
        "====",
        "===="
      ],
      [
        "om",
        "e"
      ],
      [
        "i",
        "z"
      ],
      [
        "ab",
        "le"
      ],
      [
        "ch",
        "ed"
      ],
      [
        "ment",
        "s"
      ],
      [
        "en",
        "ron"
      ],
      [
        "Ġs",
        "p"
      ],
      [
        "p",
        "t"
      ],
      [
        "a",
        "v"
      ],
      [
        "for",
        "m"
      ],
      [
        "Ġs",
        "o"
      ],
      [
        "Ġ1",
        "0"
      ],
      [
        "o",
        "d"
      ],
      [
        "Ġ",
        "4"
      ],
      [
        "a",
        "ke"
      ],
      [
        ":",
        "//"
      ],
      [
        "Ġ",
        "["
      ],
      [
        "c",
        "l"
      ],
      [
        "im",
        "e"
      ],
      [
        "Ġ",
        "5"
      ],
      [
        "an",
        "ce"
      ],
      [
        "m",
        "er"
      ],
      [
        "'",
        "t"
      ],
      [
        "Ġg",
        "o"
      ],
      [
        "ĠS",
        "ent"
      ],
      [
        "Ġa",
        "pp"
      ],
      [
        "t",
        "o"
      ],
      [
        "~",
        "~"
      ],
      [
        "tt",
        "p"
      ],
      [
        "Ġh",
        "ttp"
      ],
      [
        "ĠM",
        "essage"
      ],
      [
        "i",
        "ke"
      ],
      [
        "Ġsa",
        "id"
      ],
      [
        "p",
        "ort"
      ],
      [
        "Ġb",
        "ut"
      ],
      [
        "in",
        "d"
      ],
      [
        "ĠW",
        "e"
      ],
      [
        "rig",
        "inal"
      ],
      [
        "w",
        "ard"
      ],
      [
        "Ġd",
        "is"
      ],
      [
        "Ġk",
        "now"
      ],
      [
        "u",
        "ct"
      ],
      [
        "le",
        "ct"
      ],
      [
        "Ġ",
        "qu"
      ],
      [
        "ĠE",
        "n"
      ],
      [
        "ĠTh",
        "ank"
      ],
      [
        "ĠS",
        "h"
      ],
      [
        "O",
        "riginal"
      ],
      [
        "oo",
        "k"
      ],
      [
        "1",
        "3"
      ],
      [
        "id",
        "e"
      ],
      [
        "Ġit",
        "s"
      ],
      [
        "i",
        "b"
      ],
      [
        "2",
        "001"
      ],
      [
        "o",
        "ve"
      ],
      [
        "r",
        "ans"
      ],
      [
        "ol",
        "l"
      ],
      [
        "I",
        "M"
      ],
      [
        "p",
        "er"
      ],
      [
        "Ġc",
        "l"
      ],
      [
        "d",
        "it"
      ],
      [
        "t",
        "s"
      ],
      [
        "Ġm",
        "ore"
      ],
      [
        "ĠF",
        "or"
      ],
      [
        "e",
        "k"
      ],
      [
        "Ġ1",
        "1"
      ],
      [
        "o",
        "b"
      ],
      [
        "Ġne",
        "ed"
      ],
      [
        "Ġab",
        "out"
      ],
      [
        "s",
        "o"
      ],
      [
        "Ġp",
        "er"
      ],
      [
        "Ġn",
        "ew"
      ],
      [
        "Ġg",
        "et"
      ],
      [
        "Ġof",
        "f"
      ],
      [
        "it",
        "e"
      ],
      [
        "ver",
        "y"
      ],
      [
        "v",
        "i"
      ],
      [
        "res",
        "s"
      ],
      [
        "ĠI",
        "f"
      ],
      [
        "a",
        "ct"
      ],
      [
        "Ġthe",
        "y"
      ],
      [
        "is",
        "s"
      ],
      [
        "ra",
        "ct"
      ],
      [
        "v",
        "el"
      ],
      [
        "an",
        "c"
      ],
      [
        "Ġwe",
        "ek"
      ],
      [
        "il",
        "e"
      ],
      [
        "Ġwh",
        "ich"
      ],
      [
        "ĠC",
        "on"
      ],
      [
        "2",
        "000"
      ],
      [
        "am",
        "e"
      ],
      [
        "Ġbe",
        "en"
      ],
      [
        "ig",
        "n"
      ],
      [
        "Ġp",
        "art"
      ],
      [
        "Ġc",
        "c"
      ],
      [
        "in",
        "k"
      ],
      [
        "or",
        "s"
      ],
      [
        "Ġ1",
        "2"
      ],
      [
        "oug",
        "h"
      ],
      [
        "or",
        "d"
      ],
      [
        "u",
        "es"
      ],
      [
        "Ġa",
        "m"
      ],
      [
        "al",
        "ly"
      ],
      [
        "9",
        "9"
      ],
      [
        "N",
        "A"
      ],
      [
        "o",
        "v"
      ],
      [
        "el",
        "y"
      ],
      [
        "ĠC",
        "al"
      ],
      [
        "a",
        "ch"
      ],
      [
        "Ġm",
        "ay"
      ],
      [
        "n",
        "e"
      ],
      [
        "AAAAAAAA",
        "AAAAAAAA"
      ],
      [
        "m",
        "an"
      ],
      [
        "ĠJ",
        "o"
      ],
      [
        "Ġo",
        "ther"
      ],
      [
        "Ġm",
        "arket"
      ],
      [
        "Ġon",
        "e"
      ],
      [
        "Ġre",
        "c"
      ],
      [
        "at",
        "es"
      ],
      [
        "Ġ",
        "8"
      ],
      [
        "a",
        "w"
      ],
      [
        "Ġ",
        "----------------"
      ],
      [
        "Ġthe",
        "ir"
      ],
      [
        "Ġ",
        "6"
      ],
      [
        "os",
        "e"
      ],
      [
        "Ġw",
        "ork"
      ],
      [
        "AG",
        "E"
      ],
      [
        "re",
        "n"
      ],
      [
        "ĠP",
        "lease"
      ],
      [
        "le",
        "t"
      ],
      [
        "Ġp",
        "ric"
      ],
      [
        "Ġm",
        "y"
      ],
      [
        "Ġ",
        "im"
      ],
      [
        "ing",
        "s"
      ],
      [
        "it",
        "ies"
      ],
      [
        "ĠThank",
        "s"
      ],
      [
        "oun",
        "d"
      ],
      [
        "Ġp",
        "ower"
      ],
      [
        "A",
        "B"
      ],
      [
        "form",
        "ation"
      ],
      [
        "Ġt",
        "ime"
      ],
      [
        "Ġp",
        "lease"
      ],
      [
        "Ġin",
        "ter"
      ],
      [
        "h",
        "e"
      ],
      [
        "Ġs",
        "e"
      ],
      [
        "Ġs",
        "ome"
      ],
      [
        "Ġc",
        "all"
      ],
      [
        "r",
        "is"
      ],
      [
        "s",
        "on"
      ],
      [
        "Ġin",
        "v"
      ],
      [
        "oun",
        "t"
      ],
      [
        "Ġy",
        "ear"
      ],
      [
        "an",
        "g"
      ],
      [
        "IM",
        "AGE"
      ],
      [
        "oo",
        "d"
      ],
      [
        "ĠTh",
        "is"
      ],
      [
        "on",
        "d"
      ],
      [
        "o",
        "y"
      ],
      [
        "as",
        "s"
      ],
      [
        "v",
        "en"
      ],
      [
        "it",
        "t"
      ],
      [
        "h",
        "n"
      ],
      [
        "..",
        ".."
      ],
      [
        "a",
        "x"
      ],
      [
        "ĠD",
        "e"
      ],
      [
        "ay",
        "s"
      ],
      [
        "Ġth",
        "ere"
      ],
      [
        "Ġre",
        "g"
      ],
      [
        "ww",
        "w"
      ],
      [
        "Ġre",
        "qu"
      ],
      [
        "ĠA",
        "s"
      ],
      [
        "Ġ",
        "9"
      ],
      [
        "Ġ",
        "&"
      ],
      [
        "A",
        "C"
      ],
      [
        "Ġsh",
        "ould"
      ],
      [
        "on",
        "g"
      ],
      [
        "in",
        "ess"
      ],
      [
        "e",
        "ff"
      ],
      [
        "o",
        "in"
      ],
      [
        "ĠW",
        "h"
      ],
      [
        "id",
        "ent"
      ],
      [
        "er",
        "m"
      ],
      [
        "ĠF",
        "r"
      ],
      [
        "A",
        "N"
      ],
      [
        "Ġre",
        "ce"
      ],
      [
        "Ġin",
        "formation"
      ],
      [
        "ĠN",
        "ew"
      ],
      [
        "00",
        "2"
      ],
      [
        "il",
        "ity"
      ],
      [
        "Ġa",
        "cc"
      ],
      [
        "if",
        "orn"
      ],
      [
        "us",
        "iness"
      ],
      [
        "ri",
        "b"
      ],
      [
        "3",
        "0"
      ],
      [
        "ou",
        "p"
      ],
      [
        "Ġp",
        "re"
      ],
      [
        "Ġwh",
        "o"
      ],
      [
        "Ġcomp",
        "any"
      ],
      [
        "ill",
        "ion"
      ],
      [
        "Ġpro",
        "v"
      ],
      [
        "ĠM",
        "on"
      ],
      [
        "an",
        "ge"
      ],
      [
        "Ġ",
        "'"
      ],
      [
        "2",
        "0"
      ],
      [
        "ĠA",
        "l"
      ],
      [
        "Ġin",
        "d"
      ],
      [
        "I",
        "N"
      ],
      [
        "o",
        "ber"
      ],
      [
        "Ġex",
        "p"
      ],
      [
        "iforn",
        "ia"
      ],
      [
        "Ġal",
        "so"
      ],
      [
        "ou",
        "s"
      ],
      [
        "Ġt",
        "rans"
      ],
      [
        "ul",
        "t"
      ],
      [
        "Ġt",
        "rad"
      ],
      [
        "ĠR",
        "E"
      ],
      [
        "cl",
        "ud"
      ],
      [
        "Ġcon",
        "s"
      ],
      [
        "l",
        "ic"
      ],
      [
        "Ġl",
        "ike"
      ],
      [
        "Ġw",
        "ere"
      ],
      [
        "ĠM",
        "ar"
      ],
      [
        "ro",
        "w"
      ],
      [
        "ow",
        "n"
      ],
      [
        "o",
        "ck"
      ],
      [
        "ta",
        "in"
      ],
      [
        "Ġo",
        "ver"
      ],
      [
        "is",
        "h"
      ],
      [
        "Ġha",
        "d"
      ],
      [
        "Ġ",
        "--"
      ],
      [
        "Ġas",
        "s"
      ],
      [
        "y",
        "st"
      ],
      [
        "//",
        "//"
      ],
      [
        "n",
        "et"
      ],
      [
        "ĠC",
        "orp"
      ],
      [
        "Ġde",
        "al"
      ],
      [
        "Ġwh",
        "at"
      ],
      [
        "ĠCal",
        "ifornia"
      ],
      [
        "ĠH",
        "e"
      ],
      [
        "ĠCom",
        "m"
      ],
      [
        "ic",
        "al"
      ],
      [
        "f",
        "t"
      ],
      [
        "Ġme",
        "et"
      ],
      [
        "Ġ",
        "?"
      ],
      [
        "Ġle",
        "t"
      ],
      [
        "o",
        "g"
      ],
      [
        "en",
        "er"
      ],
      [
        "Ġt",
        "e"
      ],
      [
        "1",
        "0"
      ],
      [
        "A",
        "L"
      ],
      [
        "ir",
        "m"
      ],
      [
        "Ġw",
        "ant"
      ],
      [
        "Ġ",
        "*"
      ],
      [
        ")",
        "."
      ],
      [
        "ol",
        "d"
      ],
      [
        "u",
        "y"
      ],
      [
        "m",
        "ber"
      ],
      [
        "1",
        "2"
      ],
      [
        "EN",
        "T"
      ],
      [
        "d",
        "uct"
      ],
      [
        "E",
        "L"
      ],
      [
        "vi",
        "ew"
      ],
      [
        "Ġh",
        "is"
      ],
      [
        "Ġun",
        "der"
      ],
      [
        "ĠEn",
        "ergy"
      ],
      [
        "Ġa",
        "r"
      ],
      [
        "r",
        "oup"
      ],
      [
        "5",
        "0"
      ],
      [
        "Ġdis",
        "c"
      ],
      [
        "O",
        "R"
      ],
      [
        "A",
        "D"
      ],
      [
        "Ġcont",
        "ract"
      ],
      [
        "us",
        "s"
      ],
      [
        "is",
        "e"
      ],
      [
        "t",
        "end"
      ],
      [
        "at",
        "ing"
      ],
      [
        "Ġ>",
        ">"
      ],
      [
        "ra",
        "m"
      ],
      [
        "Ġcom",
        "m"
      ],
      [
        "Ġ",
        "|"
      ],
      [
        "ĠI",
        "t"
      ],
      [
        "f",
        "ter"
      ],
      [
        "Ġen",
        "ergy"
      ],
      [
        "Ġst",
        "ate"
      ],
      [
        "A",
        "T"
      ],
      [
        "Ġc",
        "ould"
      ],
      [
        "ĠE",
        "x"
      ],
      [
        "oll",
        "ow"
      ],
      [
        "lect",
        "ric"
      ],
      [
        "Ġad",
        "d"
      ],
      [
        "Ġthe",
        "se"
      ],
      [
        "Ġwh",
        "en"
      ],
      [
        "r",
        "u"
      ],
      [
        "Ġin",
        "clud"
      ],
      [
        "ire",
        "ct"
[...]
